<pad>	0
<unk>	0
<s>	0
</s>	0
<0x00>	0
<0x01>	0
<0x02>	0
<0x03>	0
<0x04>	0
<0x05>	0
<0x06>	0
<0x07>	0
<0x08>	0
<0x09>	0
<0x0A>	0
<0x0B>	0
<0x0C>	0
<0x0D>	0
<0x0E>	0
<0x0F>	0
<0x10>	0
<0x11>	0
<0x12>	0
<0x13>	0
<0x14>	0
<0x15>	0
<0x16>	0
<0x17>	0
<0x18>	0
<0x19>	0
<0x1A>	0
<0x1B>	0
<0x1C>	0
<0x1D>	0
<0x1E>	0
<0x1F>	0
<0x20>	0
<0x21>	0
<0x22>	0
<0x23>	0
<0x24>	0
<0x25>	0
<0x26>	0
<0x27>	0
<0x28>	0
<0x29>	0
<0x2A>	0
<0x2B>	0
<0x2C>	0
<0x2D>	0
<0x2E>	0
<0x2F>	0
<0x30>	0
<0x31>	0
<0x32>	0
<0x33>	0
<0x34>	0
<0x35>	0
<0x36>	0
<0x37>	0
<0x38>	0
<0x39>	0
<0x3A>	0
<0x3B>	0
<0x3C>	0
<0x3D>	0
<0x3E>	0
<0x3F>	0
<0x40>	0
<0x41>	0
<0x42>	0
<0x43>	0
<0x44>	0
<0x45>	0
<0x46>	0
<0x47>	0
<0x48>	0
<0x49>	0
<0x4A>	0
<0x4B>	0
<0x4C>	0
<0x4D>	0
<0x4E>	0
<0x4F>	0
<0x50>	0
<0x51>	0
<0x52>	0
<0x53>	0
<0x54>	0
<0x55>	0
<0x56>	0
<0x57>	0
<0x58>	0
<0x59>	0
<0x5A>	0
<0x5B>	0
<0x5C>	0
<0x5D>	0
<0x5E>	0
<0x5F>	0
<0x60>	0
<0x61>	0
<0x62>	0
<0x63>	0
<0x64>	0
<0x65>	0
<0x66>	0
<0x67>	0
<0x68>	0
<0x69>	0
<0x6A>	0
<0x6B>	0
<0x6C>	0
<0x6D>	0
<0x6E>	0
<0x6F>	0
<0x70>	0
<0x71>	0
<0x72>	0
<0x73>	0
<0x74>	0
<0x75>	0
<0x76>	0
<0x77>	0
<0x78>	0
<0x79>	0
<0x7A>	0
<0x7B>	0
<0x7C>	0
<0x7D>	0
<0x7E>	0
<0x7F>	0
<0x80>	0
<0x81>	0
<0x82>	0
<0x83>	0
<0x84>	0
<0x85>	0
<0x86>	0
<0x87>	0
<0x88>	0
<0x89>	0
<0x8A>	0
<0x8B>	0
<0x8C>	0
<0x8D>	0
<0x8E>	0
<0x8F>	0
<0x90>	0
<0x91>	0
<0x92>	0
<0x93>	0
<0x94>	0
<0x95>	0
<0x96>	0
<0x97>	0
<0x98>	0
<0x99>	0
<0x9A>	0
<0x9B>	0
<0x9C>	0
<0x9D>	0
<0x9E>	0
<0x9F>	0
<0xA0>	0
<0xA1>	0
<0xA2>	0
<0xA3>	0
<0xA4>	0
<0xA5>	0
<0xA6>	0
<0xA7>	0
<0xA8>	0
<0xA9>	0
<0xAA>	0
<0xAB>	0
<0xAC>	0
<0xAD>	0
<0xAE>	0
<0xAF>	0
<0xB0>	0
<0xB1>	0
<0xB2>	0
<0xB3>	0
<0xB4>	0
<0xB5>	0
<0xB6>	0
<0xB7>	0
<0xB8>	0
<0xB9>	0
<0xBA>	0
<0xBB>	0
<0xBC>	0
<0xBD>	0
<0xBE>	0
<0xBF>	0
<0xC0>	0
<0xC1>	0
<0xC2>	0
<0xC3>	0
<0xC4>	0
<0xC5>	0
<0xC6>	0
<0xC7>	0
<0xC8>	0
<0xC9>	0
<0xCA>	0
<0xCB>	0
<0xCC>	0
<0xCD>	0
<0xCE>	0
<0xCF>	0
<0xD0>	0
<0xD1>	0
<0xD2>	0
<0xD3>	0
<0xD4>	0
<0xD5>	0
<0xD6>	0
<0xD7>	0
<0xD8>	0
<0xD9>	0
<0xDA>	0
<0xDB>	0
<0xDC>	0
<0xDD>	0
<0xDE>	0
<0xDF>	0
<0xE0>	0
<0xE1>	0
<0xE2>	0
<0xE3>	0
<0xE4>	0
<0xE5>	0
<0xE6>	0
<0xE7>	0
<0xE8>	0
<0xE9>	0
<0xEA>	0
<0xEB>	0
<0xEC>	0
<0xED>	0
<0xEE>	0
<0xEF>	0
<0xF0>	0
<0xF1>	0
<0xF2>	0
<0xF3>	0
<0xF4>	0
<0xF5>	0
<0xF6>	0
<0xF7>	0
<0xF8>	0
<0xF9>	0
<0xFA>	0
<0xFB>	0
<0xFC>	0
<0xFD>	0
<0xFE>	0
<0xFF>	0
▁the	-2.93533
▁and	-3.53978
s	-3.60973
▁of	-3.64641
▁to	-3.7213
▁a	-3.86932
▁in	-4.19074
▁i	-4.33502
ed	-4.37039
▁he	-4.43264
▁was	-4.44867
▁that	-4.49362
▁it	-4.57958
ing	-4.71259
'	-4.75904
▁his	-4.77148
▁had	-4.91393
▁with	-4.9575
▁you	-4.9746
▁for	-5.00502
▁as	-5.01093
▁her	-5.07574
▁not	-5.18134
▁but	-5.18432
▁she	-5.21149
▁is	-5.2599
▁at	-5.28319
▁be	-5.28903
▁on	-5.29691
t	-5.34058
ly	-5.35129
▁him	-5.44353
▁they	-5.51569
▁by	-5.54196
▁have	-5.56312
▁my	-5.57244
▁this	-5.57899
▁were	-5.582
▁all	-5.58889
▁which	-5.59434
▁so	-5.61245
▁from	-5.64092
d	-5.64326
▁me	-5.6672
▁one	-5.67392
▁said	-5.69312
y	-5.70791
▁we	-5.72759
e	-5.72935
▁no	-5.86658
▁there	-5.86944
▁when	-5.91193
▁their	-5.92069
▁an	-5.9211
▁or	-5.96411
▁would	-5.97131
▁them	-6.01472
▁who	-6.02601
▁if	-6.06323
▁what	-6.06656
▁are	-6.08362
▁been	-6.10738
n	-6.15105
▁out	-6.16357
▁up	-6.18752
▁will	-6.25906
▁could	-6.27808
▁then	-6.28592
▁man	-6.30004
er	-6.30362
▁do	-6.33562
▁into	-6.35146
▁more	-6.35522
▁some	-6.40585
▁very	-6.44216
▁now	-6.46535
▁your	-6.47839
▁little	-6.49026
▁time	-6.50955
▁about	-6.51587
▁did	-6.51927
▁than	-6.53273
▁like	-6.54048
r	-6.61393
▁has	-6.61525
▁upon	-6.62354
▁well	-6.62687
▁other	-6.63432
▁can	-6.64887
▁two	-6.66292
▁only	-6.66855
▁any	-6.67413
▁our	-6.68935
▁over	-6.69145
m	-6.70701
▁made	-6.72369
▁after	-6.72848
▁see	-6.72878
▁before	-6.7352
▁down	-6.74984
▁miss	-6.76619
▁great	-6.76892
▁know	-6.77433
es	-6.7837
▁day	-6.78896
▁us	-6.79254
▁old	-6.7956
▁such	-6.79643
▁good	-6.7996
▁these	-6.81507
▁came	-6.83458
▁should	-6.84615
▁mister	-6.86347
▁way	-6.86367
▁how	-6.86883
▁much	-6.87429
▁where	-6.88445
us	-6.89492
▁go	-6.89954
▁must	-6.90556
▁never	-6.90947
▁come	-6.91603
▁back	-6.94229
▁long	-6.96892
▁again	-6.99704
▁first	-6.99808
c	-6.99827
al	-7.00669
▁might	-7.02513
▁its	-7.02781
▁own	-7.02838
▁men	-7.04109
▁himself	-7.04894
▁say	-7.05587
▁may	-7.064
ll	-7.06609
▁through	-7.06719
st	-7.06748
▁even	-7.07498
▁just	-7.07818
▁went	-7.09136
▁make	-7.1099
▁	-7.11353
re	-7.11441
▁think	-7.11503
▁here	-7.11983
▁house	-7.1231
▁thought	-7.14369
▁life	-7.15258
▁eyes	-7.16267
▁un	-7.16587
▁most	-7.16735
▁without	-7.1679
▁those	-7.17284
▁every	-7.18227
▁too	-7.18319
▁many	-7.19234
▁away	-7.19336
▁am	-7.19715
▁don	-7.19898
▁being	-7.23133
▁still	-7.235
▁hand	-7.23929
o	-7.24166
▁last	-7.2486
▁night	-7.25955
ness	-7.25967
▁nothing	-7.26449
en	-7.2645
▁head	-7.2651
▁while	-7.26585
▁take	-7.27742
▁people	-7.28078
▁found	-7.2869
▁get	-7.28987
▁young	-7.29885
▁though	-7.30578
▁yet	-7.3215
▁three	-7.32348
▁off	-7.32586
l	-7.32793
▁under	-7.33822
▁right	-7.34893
▁face	-7.35292
▁saw	-7.36405
▁asked	-7.37366
in	-7.37456
▁tell	-7.37573
▁new	-7.37743
▁s	-7.38072
▁same	-7.3808
p	-7.38832
▁place	-7.41035
▁another	-7.41043
▁left	-7.41768
▁father	-7.42351
▁ever	-7.4262
g	-7.43303
▁room	-7.43651
▁shall	-7.43971
▁once	-7.44118
▁put	-7.4442
▁took	-7.44828
▁let	-7.45016
▁seemed	-7.46129
▁always	-7.46222
▁work	-7.47564
a	-7.48348
▁why	-7.48838
▁told	-7.49475
or	-7.4952
▁give	-7.5005
able	-7.50656
▁heart	-7.51127
▁looked	-7.51792
▁heard	-7.5199
▁love	-7.52235
▁soon	-7.52666
ve	-7.5371
▁look	-7.5437
▁mother	-7.54614
▁because	-7.55609
▁far	-7.5675
▁mind	-7.56834
▁king	-7.57386
▁something	-7.57462
▁moment	-7.59256
▁things	-7.59399
▁home	-7.59694
est	-7.59798
▁find	-7.60411
▁o	-7.60452
▁going	-7.60461
▁world	-7.61094
▁thing	-7.61296
ion	-7.61631
le	-7.62022
on	-7.62506
b	-7.63234
▁door	-7.6574
▁knew	-7.65784
▁part	-7.65786
▁woman	-7.65787
▁sir	-7.6588
▁each	-7.66899
▁having	-7.67837
▁against	-7.67843
▁few	-7.68029
▁side	-7.68193
▁began	-7.69169
▁yes	-7.69323
▁better	-7.69549
i	-7.70119
ers	-7.71179
▁enough	-7.71288
▁years	-7.72295
less	-7.73951
ity	-7.74019
▁white	-7.7413
▁water	-7.74215
▁whole	-7.74732
▁got	-7.7481
▁hard	-7.74938
u	-7.75116
▁done	-7.75295
▁girl	-7.7563
▁seen	-7.76071
▁called	-7.77289
▁hundred	-7.7732
h	-7.77491
▁between	-7.77944
▁morning	-7.77944
▁de	-7.78632
▁felt	-7.79203
ies	-7.79264
▁name	-7.79981
▁toward	-7.80783
k	-7.81033
▁herself	-7.81554
▁re	-7.81985
ic	-7.82098
▁half	-7.82642
▁c	-7.82856
▁among	-7.8286
▁however	-7.82887
▁turned	-7.83584
▁also	-7.83962
▁poor	-7.842
▁voice	-7.84375
▁perhaps	-7.84405
▁replied	-7.84851
▁course	-7.84853
f	-7.84931
▁light	-7.85128
ation	-7.85203
▁quite	-7.85589
▁does	-7.86311
▁oh	-7.86476
▁myself	-7.86655
▁want	-7.87598
▁set	-7.87809
ous	-7.88538
▁both	-7.8872
▁small	-7.88724
▁sure	-7.88905
▁gave	-7.8968
▁kind	-7.90073
▁present	-7.90122
▁whom	-7.91165
▁near	-7.92337
an	-7.92646
▁end	-7.93416
▁rest	-7.93562
▁almo	-7.93965
▁together	-7.94214
▁hands	-7.94989
▁until	-7.95201
▁open	-7.96025
▁four	-7.96169
▁dear	-7.96484
▁words	-7.96584
▁anything	-7.97711
▁feet	-7.97714
▁lay	-7.97893
▁next	-7.97965
▁general	-7.97965
▁stood	-7.9822
▁black	-7.98476
w	-7.98609
▁brought	-7.98733
▁land	-7.98766
▁god	-7.993
▁show	-7.99501
ce	-7.99536
ry	-7.9958
▁days	-7.99696
▁high	-7.99703
▁round	-8.00025
▁large	-8.00284
▁believe	-8.00411
▁five	-8.01342
▁best	-8.01466
▁sat	-8.01976
▁nor	-8.02167
▁walk	-8.02826
th	-8.03657
▁full	-8.04211
v	-8.04453
▁along	-8.04809
▁money	-8.0482
▁child	-8.05089
▁matter	-8.05128
▁looking	-8.05216
▁rather	-8.05366
▁since	-8.05514
ment	-8.0586
▁twenty	-8.05916
▁passed	-8.06721
▁indeed	-8.07311
▁country	-8.08165
▁keep	-8.08299
▁word	-8.08347
ar	-8.08825
▁t	-8.09009
▁fire	-8.09342
▁air	-8.09515
▁cried	-8.09857
▁dur	-8.10346
▁friend	-8.10616
▁taken	-8.10625
▁uncle	-8.1073
▁less	-8.11623
▁nature	-8.12111
▁others	-8.12326
▁power	-8.12599
ur	-8.1286
▁gone	-8.1312
▁boy	-8.13165
▁whose	-8.13531
▁john	-8.14252
▁death	-8.14554
▁master	-8.14575
▁answered	-8.14634
it	-8.14775
▁themselves	-8.14856
▁lady	-8.15245
▁wife	-8.16071
▁hope	-8.16374
▁thousand	-8.16376
▁true	-8.16467
▁behind	-8.16682
▁often	-8.16717
▁doctor	-8.1699
▁care	-8.17044
▁short	-8.17126
▁al	-8.18225
▁till	-8.18268
▁around	-8.18543
▁certain	-8.19306
▁women	-8.19487
▁ground	-8.19491
▁point	-8.19624
ro	-8.19719
ra	-8.20298
▁war	-8.20412
▁children	-8.2076
▁talk	-8.20817
▁wish	-8.22025
▁sent	-8.2241
▁leave	-8.22604
▁help	-8.2268
▁already	-8.22697
▁order	-8.22709
ish	-8.22736
▁thus	-8.23075
▁hear	-8.23264
▁case	-8.23285
▁red	-8.23301
▁sight	-8.23446
▁fell	-8.23699
▁call	-8.23896
▁became	-8.2401
▁watch	-8.24341
▁cannot	-8.25007
▁body	-8.25342
▁returned	-8.25424
▁state	-8.25973
▁didn	-8.26208
▁speak	-8.26215
▁alone	-8.26691
▁son	-8.2672
▁sea	-8.26728
ate	-8.26807
▁fact	-8.27009
▁given	-8.27147
▁everything	-8.27715
▁dead	-8.28059
▁coming	-8.28616
el	-8.28914
▁held	-8.2911
▁really	-8.29761
▁above	-8.29795
▁beautiful	-8.30145
▁second	-8.30145
▁fine	-8.30249
ng	-8.30514
▁evening	-8.30754
▁hour	-8.3174
▁city	-8.32709
▁bed	-8.32751
▁doubt	-8.33157
▁lord	-8.33351
▁hair	-8.33365
is	-8.33566
▁question	-8.33569
▁mean	-8.3379
▁clear	-8.33975
▁sometimes	-8.34089
▁foot	-8.34096
at	-8.34214
▁feel	-8.34292
▁use	-8.34589
ful	-8.34775
▁captain	-8.35192
▁rose	-8.35307
▁fear	-8.35518
▁kept	-8.35562
▁dark	-8.36163
▁need	-8.36528
▁least	-8.37057
▁year	-8.37395
▁manner	-8.37403
▁become	-8.37434
▁close	-8.37607
▁within	-8.3784
▁family	-8.38196
▁says	-8.38426
▁sound	-8.38492
ia	-8.38836
▁reason	-8.38894
▁making	-8.38958
▁whether	-8.38958
▁eye	-8.39059
▁turn	-8.39511
▁six	-8.39679
▁sort	-8.39741
ie	-8.39778
man	-8.39893
▁answer	-8.40013
▁person	-8.40111
▁friends	-8.40243
▁town	-8.40538
▁table	-8.40585
▁suddenly	-8.40724
▁return	-8.40802
▁fair	-8.41352
▁either	-8.41682
▁prince	-8.42004
▁itself	-8.42077
▁thou	-8.4208
▁able	-8.42273
▁wood	-8.4257
ri	-8.42583
▁big	-8.42819
as	-8.43162
▁several	-8.43272
▁daughter	-8.43273
▁won	-8.4332
▁wind	-8.43372
▁strange	-8.43444
▁ten	-8.43676
▁earth	-8.43686
▁lost	-8.44136
▁story	-8.44489
▁appeared	-8.44625
▁road	-8.45712
▁possible	-8.45789
▁live	-8.46064
▁human	-8.46088
▁different	-8.46103
▁cold	-8.46537
ch	-8.46626
▁street	-8.46729
▁known	-8.46851
▁continued	-8.47211
▁bring	-8.47389
ive	-8.47577
▁brother	-8.47588
▁sun	-8.48233
led	-8.48255
▁d	-8.48405
▁fellow	-8.48452
▁run	-8.48604
▁deep	-8.48994
▁glad	-8.49047
aught	-8.49127
▁ask	-8.49172
▁means	-8.4966
il	-8.49751
▁late	-8.49832
▁sleep	-8.49849
▁used	-8.50021
▁read	-8.50079
▁understand	-8.50279
▁river	-8.50332
▁reached	-8.50637
▁green	-8.50757
▁horse	-8.5154
▁force	-8.51554
▁past	-8.51561
▁snow	-8.51628
▁window	-8.5199
▁free	-8.5208
▁therefore	-8.52533
ting	-8.52921
▁church	-8.52938
▁blue	-8.52944
▁followed	-8.53314
▁longer	-8.53378
▁tree	-8.53382
▁business	-8.53393
▁peter	-8.53414
▁hold	-8.53829
▁happy	-8.53831
▁form	-8.53861
▁arms	-8.53912
z	-8.53979
▁across	-8.54277
▁soul	-8.54616
▁else	-8.54732
ant	-8.54891
▁low	-8.55175
▁play	-8.55261
▁school	-8.55629
▁princess	-8.55712
▁certainly	-8.55859
▁bad	-8.56577
ling	-8.56621
▁idea	-8.56989
ance	-8.5731
▁book	-8.57376
▁m	-8.57457
▁husband	-8.57459
▁feeling	-8.57715
though	-8.57839
▁ought	-8.57926
▁strong	-8.58135
▁met	-8.58472
▁sense	-8.58855
▁fall	-8.58956
▁wanted	-8.59097
▁ready	-8.59219
▁times	-8.59222
▁carried	-8.59352
▁number	-8.59431
ent	-8.59506
▁chance	-8.59808
▁lived	-8.60204
▁later	-8.60433
▁eighteen	-8.61191
ated	-8.61669
▁garden	-8.61687
▁ran	-8.62267
▁suppose	-8.62357
ul	-8.62506
▁wild	-8.62674
▁added	-8.62869
ton	-8.62941
▁party	-8.63072
▁act	-8.63177
▁pay	-8.63384
▁letter	-8.63455
ty	-8.63529
▁taking	-8.63652
men	-8.64349
▁trouble	-8.64781
▁dis	-8.65064
▁public	-8.65137
▁pretty	-8.65137
▁truth	-8.65181
▁wonder	-8.65364
▁b	-8.65946
na	-8.65973
▁entered	-8.66151
▁remember	-8.66382
▁cause	-8.66524
▁received	-8.66526
▁spoke	-8.66942
▁led	-8.66953
▁usual	-8.67155
ary	-8.6721
▁trees	-8.6721
x	-8.67238
▁ill	-8.67411
▁line	-8.67455
▁seven	-8.67497
▁cut	-8.67772
▁forward	-8.67867
▁tried	-8.67886
▁english	-8.68152
▁law	-8.68885
▁car	-8.69041
▁arm	-8.69426
▁hours	-8.69498
▁beyond	-8.6973
▁living	-8.6973
▁age	-8.69746
▁art	-8.69897
▁subject	-8.70162
▁england	-8.70253
▁stone	-8.70277
▁girls	-8.70372
et	-8.7055
▁sweet	-8.70779
te	-8.71107
▁position	-8.71309
▁st	-8.71318
ne	-8.71416
▁character	-8.71838
▁seem	-8.72099
▁thy	-8.72113
ter	-8.72173
▁spirit	-8.72347
▁blood	-8.72375
▁meet	-8.72394
▁opened	-8.72415
▁eight	-8.73081
▁bear	-8.73135
▁forest	-8.73444
▁service	-8.73454
um	-8.73581
▁pleasure	-8.73997
▁sister	-8.74019
▁dream	-8.74247
▁struck	-8.74545
▁ho	-8.74571
▁carry	-8.74585
▁saying	-8.75038
▁worth	-8.75113
ist	-8.7555
▁silence	-8.75645
ian	-8.75666
▁cross	-8.75671
▁doing	-8.75804
▁deal	-8.75884
▁count	-8.76015
▁la	-8.76112
▁beauty	-8.76201
▁p	-8.76207
▁view	-8.76268
▁real	-8.7628
age	-8.76465
▁secret	-8.76742
▁boys	-8.7682
▁miles	-8.77066
▁front	-8.7788
▁stay	-8.78189
▁account	-8.78454
▁none	-8.78772
▁nearly	-8.79011
▁chief	-8.79025
▁court	-8.79481
▁ah	-8.79639
ck	-8.79696
▁tone	-8.79778
▁rich	-8.79792
▁standing	-8.79842
▁attention	-8.80202
▁k	-8.80328
▁top	-8.80677
▁further	-8.80761
▁early	-8.81125
▁mouth	-8.81351
▁boat	-8.81367
▁immediately	-8.81514
▁forth	-8.8164
▁except	-8.81804
▁grew	-8.81949
▁change	-8.82452
▁lead	-8.82522
▁object	-8.82595
▁sit	-8.8268
▁wide	-8.82723
▁purpose	-8.82852
▁neither	-8.8312
▁yourself	-8.8312
▁happened	-8.83323
▁smile	-8.83363
▁interest	-8.8366
▁opinion	-8.83719
▁wait	-8.83956
▁common	-8.84005
▁f	-8.84592
▁desire	-8.84733
tic	-8.84784
▁regard	-8.84864
▁third	-8.84927
▁sign	-8.85087
▁mine	-8.85244
▁youth	-8.85445
▁company	-8.85537
▁pre	-8.85671
▁ma	-8.85901
▁length	-8.86151
▁thirty	-8.86151
la	-8.86415
▁ba	-8.86432
▁eat	-8.87139
▁afraid	-8.87389
▁fresh	-8.8739
▁filled	-8.87402
▁equal	-8.87422
▁minutes	-8.87448
▁hat	-8.8778
▁enter	-8.88012
▁queen	-8.88014
▁floor	-8.88022
ical	-8.88054
▁ship	-8.88175
▁stopped	-8.88644
▁heaven	-8.88644
▁warm	-8.88855
▁hall	-8.89226
▁stand	-8.89244
me	-8.89305
▁week	-8.8976
▁gold	-8.89847
▁fifty	-8.89913
▁seems	-8.89974
▁remain	-8.90294
▁visit	-8.90384
▁exclaimed	-8.90608
▁started	-8.90933
▁hill	-8.91083
▁bright	-8.9113
▁expression	-8.91297
▁wonderful	-8.91325
▁saint	-8.91848
▁appearance	-8.91861
▁loved	-8.91981
▁th	-8.92006
▁thank	-8.92048
co	-8.92182
▁office	-8.92378
land	-8.92433
▁die	-8.92437
▁instead	-8.92502
▁silent	-8.92502
▁camp	-8.92507
ard	-8.92641
lo	-8.93025
▁chair	-8.93144
▁government	-8.93166
▁bit	-8.93306
▁e	-8.93428
▁seat	-8.93551
▁sitting	-8.93849
▁bow	-8.94022
▁pass	-8.94074
▁moved	-8.94116
▁ago	-8.94382
▁g	-8.94385
▁spring	-8.94494
▁please	-8.94803
vi	-8.94949
▁died	-8.94959
▁lo	-8.95239
▁natural	-8.95356
▁corner	-8.95405
▁music	-8.95477
▁impossible	-8.95835
▁suit	-8.95872
▁brown	-8.95888
▁le	-8.96002
▁bell	-8.96131
▁try	-8.96379
▁tears	-8.96664
▁follow	-8.97051
▁danger	-8.97163
▁grand	-8.972
▁property	-8.9721
▁figure	-8.97236
▁broken	-8.97398
▁express	-8.97785
▁scarce	-8.9789
▁pocket	-8.97892
▁madame	-8.97971
▁respect	-8.98087
▁laughed	-8.98128
▁placed	-8.98394
▁covered	-8.98426
im	-8.98428
▁safe	-8.98574
▁london	-8.98585
▁jane	-8.98593
▁outside	-8.98752
▁whatever	-8.98781
▁north	-8.98964
▁utter	-8.99265
▁remained	-8.99269
▁laid	-8.99308
▁path	-8.99574
▁talking	-8.99858
▁thick	-8.9997
▁happiness	-8.99988
▁afternoon	-8.99988
▁storm	-8.99988
▁distance	-8.99988
▁married	-8.99988
▁frank	-8.9999
▁valley	-8.99992
▁bound	-9.00002
▁bo	-9.00135
▁army	-9.00441
▁race	-9.00525
▁anne	-9.00561
▁effort	-9.00698
▁french	-9.00699
▁step	-9.00784
id	-9.00916
▁particular	-9.00933
▁village	-9.01412
▁below	-9.01412
▁gentleman	-9.01426
▁po	-9.01501
▁save	-9.01859
▁pa	-9.01899
▁society	-9.02131
▁sky	-9.02132
ley	-9.0217
▁occasion	-9.0219
▁bill	-9.02193
▁co	-9.02264
▁effect	-9.02286
▁bar	-9.02586
am	-9.02619
▁fortune	-9.02856
▁pleasant	-9.02856
▁straight	-9.02856
▁strength	-9.02856
▁wrong	-9.02856
se	-9.03063
way	-9.03097
▁quiet	-9.03111
▁necessary	-9.03586
▁shore	-9.03586
rs	-9.03589
▁forget	-9.03589
▁winter	-9.03595
▁drew	-9.03604
▁treat	-9.03678
▁entirely	-9.03777
▁plain	-9.03843
▁crowd	-9.03937
▁r	-9.03947
▁complete	-9.03958
▁quickly	-9.03961
▁mountain	-9.04006
▁joy	-9.04015
ir	-9.04033
op	-9.04244
▁food	-9.04321
▁dinner	-9.04322
▁influence	-9.04323
▁chapter	-9.04325
ma	-9.04395
rry	-9.04448
▁press	-9.04513
▁reach	-9.04551
▁wall	-9.04772
▁giving	-9.05062
▁send	-9.05063
▁beginning	-9.05064
▁per	-9.05088
▁paper	-9.05342
▁pale	-9.05552
▁fight	-9.05655
▁glance	-9.05772
▁south	-9.05805
▁rush	-9.05818
ious	-9.05847
▁mark	-9.06043
un	-9.06323
▁broke	-9.06352
▁comfort	-9.06499
ions	-9.065
▁easy	-9.0656
▁battle	-9.06561
▁stop	-9.06576
▁gett	-9.06606
▁direction	-9.0669
▁ha	-9.06694
▁li	-9.07181
▁beside	-9.07321
▁mo	-9.07376
▁single	-9.07386
▁easily	-9.07399
ip	-9.07499
▁action	-9.07518
▁mary	-9.07576
▁thinking	-9.07624
ca	-9.07751
▁conversation	-9.08081
▁blow	-9.08081
▁pull	-9.081
▁terrible	-9.08125
▁dress	-9.0821
▁touch	-9.08215
▁gather	-9.08709
▁heavy	-9.0885
▁especially	-9.0887
▁train	-9.08871
ily	-9.09085
▁turning	-9.09111
▁waiting	-9.09235
▁pro	-9.0942
▁bread	-9.09633
▁american	-9.09754
ure	-9.10102
▁journey	-9.10407
▁killed	-9.10677
▁seeing	-9.10692
▁class	-9.10789
▁nine	-9.11019
▁lips	-9.1103
▁personal	-9.11168
▁probably	-9.11194
▁palace	-9.11195
▁history	-9.11198
▁shut	-9.11199
▁lake	-9.11204
▁simply	-9.11238
to	-9.11247
▁expected	-9.11621
▁wished	-9.11924
▁pain	-9.11985
▁evil	-9.11988
▁direct	-9.12177
▁slowly	-9.12257
▁couldn	-9.12301
▁sail	-9.12606
▁start	-9.12716
▁breath	-9.12952
▁following	-9.13034
▁move	-9.13276
▁lie	-9.13315
▁changed	-9.13432
▁silver	-9.13594
▁handsome	-9.13638
▁attempt	-9.13935
▁thoughts	-9.13951
▁w	-9.14024
▁smiled	-9.14076
▁steps	-9.14239
▁closed	-9.14362
▁stream	-9.14407
▁presence	-9.14407
▁marry	-9.14443
▁moon	-9.14457
▁board	-9.14516
ally	-9.14841
▁besides	-9.14873
▁speaking	-9.14955
om	-9.14968
▁star	-9.15102
▁rock	-9.15223
▁sufficient	-9.15227
▁duty	-9.15236
▁spot	-9.15238
▁horses	-9.15395
▁expect	-9.15485
▁trying	-9.15494
▁sp	-9.155
▁forty	-9.15624
▁soft	-9.15709
▁west	-9.15797
▁field	-9.15847
▁scene	-9.16018
▁self	-9.16027
▁marriage	-9.16053
▁slave	-9.16055
▁shot	-9.16062
▁ti	-9.16086
ever	-9.16119
▁meant	-9.16133
▁arrived	-9.16158
▁born	-9.16569
▁tall	-9.16584
▁grace	-9.16645
ver	-9.16847
ge	-9.16854
▁summer	-9.16887
▁cousin	-9.16887
▁begin	-9.16914
▁cry	-9.17262
▁honour	-9.17727
▁understood	-9.17734
▁shop	-9.17735
▁trust	-9.1776
▁sudden	-9.18098
▁allowed	-9.18121
▁surprise	-9.18217
▁success	-9.18322
ism	-9.18381
▁condition	-9.18409
▁fish	-9.18429
▁narrow	-9.18575
▁game	-9.18582
▁spent	-9.18594
pp	-9.18715
▁sa	-9.18888
▁lower	-9.18923
▁legs	-9.18925
▁raised	-9.19104
rew	-9.19254
cy	-9.19334
▁fit	-9.19567
▁greater	-9.19794
▁learn	-9.19832
▁h	-9.19883
be	-9.20036
▁oblig	-9.20083
▁suffer	-9.20251
▁latter	-9.20291
▁france	-9.20294
▁taste	-9.20324
▁cr	-9.20647
▁experience	-9.20683
ine	-9.20851
▁notice	-9.20906
▁woods	-9.20988
ol	-9.21011
les	-9.21076
▁minute	-9.21078
▁major	-9.21116
▁broad	-9.21161
▁individual	-9.21161
▁aunt	-9.21174
▁br	-9.2125
▁allow	-9.21346
▁east	-9.21853
▁island	-9.2191
▁sick	-9.21971
▁tail	-9.2201
▁advantage	-9.22038
▁honor	-9.22038
▁ring	-9.2231
▁pleased	-9.22506
▁observed	-9.22536
▁believed	-9.22601
▁enemy	-9.22923
▁stick	-9.22923
▁cast	-9.22931
▁various	-9.22937
▁ladies	-9.22955
▁bank	-9.23062
▁months	-9.23283
▁learned	-9.23345
side	-9.23411
▁en	-9.23474
▁picture	-9.23744
em	-9.24401
▁fast	-9.24502
▁con	-9.24513
▁box	-9.24614
clock	-9.24645
▁prevent	-9.24717
▁neck	-9.24725
▁golden	-9.24817
▁comes	-9.24869
ph	-9.24878
▁declared	-9.2496
▁building	-9.25084
ial	-9.25218
▁guess	-9.2525
▁add	-9.25311
▁write	-9.25561
▁result	-9.25611
▁carriage	-9.25626
▁situation	-9.25626
▁states	-9.25636
▁farm	-9.25737
▁simple	-9.25746
▁main	-9.25917
de	-9.25941
▁letters	-9.26097
▁runn	-9.26116
▁inter	-9.26273
▁hung	-9.26347
▁circumstances	-9.2648
▁knowledge	-9.26543
▁york	-9.26543
▁leaving	-9.26547
▁yellow	-9.26547
▁beat	-9.26656
▁finally	-9.26725
▁sharp	-9.26987
▁tea	-9.26998
▁wine	-9.27101
▁walls	-9.27143
▁ancient	-9.27469
▁march	-9.27557
▁quick	-9.27666
▁instant	-9.27928
▁imp	-9.27944
▁em	-9.28104
▁appear	-9.28139
▁isabel	-9.28389
▁temper	-9.28404
▁twelve	-9.28404
▁grass	-9.28448
▁gray	-9.28603
▁escape	-9.28988
▁attack	-9.29011
▁ball	-9.29015
▁kill	-9.29032
▁laugh	-9.29054
▁happen	-9.29136
▁absolute	-9.29347
▁blind	-9.29347
▁vi	-9.29407
ub	-9.2945
▁moral	-9.29481
que	-9.29723
▁merely	-9.29795
▁anxious	-9.29813
▁places	-9.30004
▁pray	-9.30066
▁stretch	-9.30299
▁everybody	-9.30299
▁material	-9.30299
▁row	-9.30375
▁quarter	-9.30454
▁ch	-9.30508
ac	-9.30659
▁walking	-9.30659
▁promise	-9.30904
▁listen	-9.31035
▁houses	-9.31093
▁ye	-9.31102
▁grave	-9.31236
▁beneath	-9.31261
▁edge	-9.31264
▁ruin	-9.31272
▁worse	-9.31275
▁break	-9.31332
▁command	-9.31375
▁companion	-9.31462
▁indian	-9.3147
▁evidently	-9.31518
▁lot	-9.31573
ory	-9.31699
ations	-9.31978
▁sell	-9.32203
▁measure	-9.32219
▁president	-9.32232
▁special	-9.32232
▁labor	-9.32232
▁guard	-9.32438
▁piece	-9.32466
▁ro	-9.32586
▁stranger	-9.3276
▁dressed	-9.32869
▁luck	-9.329
hook	-9.33015
▁wear	-9.33092
▁mill	-9.33106
▁hot	-9.33165
▁rule	-9.33189
▁somewhat	-9.33212
▁belong	-9.33283
▁fallen	-9.33361
▁exactly	-9.33389
▁darkness	-9.33399
▁dropped	-9.33485
▁repeated	-9.33604
▁perfect	-9.33618
▁billy	-9.33671
▁meeting	-9.33897
▁fashion	-9.34145
▁persons	-9.3416
▁period	-9.34202
▁honest	-9.34202
▁rain	-9.34202
▁instance	-9.34206
▁passage	-9.34226
▁possession	-9.34259
▁coat	-9.34339
ut	-9.34418
tion	-9.34534
▁isn	-9.34588
▁mountains	-9.34626
di	-9.34759
▁shape	-9.3484
▁peace	-9.3496
▁fifteen	-9.35202
▁pond	-9.35205
▁welcome	-9.35207
▁skin	-9.35308
▁cha	-9.35378
▁grown	-9.35414
▁afterwards	-9.3547
▁news	-9.35494
▁receive	-9.35505
mp	-9.35553
▁grow	-9.35657
ha	-9.3578
▁farmer	-9.35811
▁difficult	-9.35835
▁ex	-9.35927
▁decided	-9.35937
ak	-9.35969
▁according	-9.36059
ors	-9.36126
▁considered	-9.36182
▁speech	-9.36212
▁important	-9.36216
▁passion	-9.36408
▁group	-9.36542
▁perfectly	-9.36703
▁thin	-9.36889
ig	-9.37051
▁paint	-9.37097
▁morrow	-9.37233
▁mount	-9.37233
▁lying	-9.37277
▁pure	-9.37299
▁search	-9.37344
▁wise	-9.37674
▁post	-9.37724
▁indians	-9.38051
ship	-9.38057
▁tin	-9.38066
▁social	-9.38248
▁rebecca	-9.38264
▁clean	-9.38264
▁private	-9.38266
▁gentlemen	-9.3828
▁iron	-9.38283
▁lose	-9.38428
▁judge	-9.38428
▁bath	-9.38571
con	-9.38878
▁mere	-9.39121
ise	-9.39178
▁written	-9.39305
▁priest	-9.39312
▁trail	-9.39315
▁clothes	-9.39372
▁forgotten	-9.39389
▁alive	-9.39405
▁makes	-9.39455
▁reply	-9.39524
▁noble	-9.3956
▁soldiers	-9.39848
▁throw	-9.40155
▁cottage	-9.40358
▁courage	-9.40358
▁built	-9.40358
▁contain	-9.40359
▁paid	-9.40381
▁castle	-9.40481
ities	-9.40521
▁mi	-9.40577
▁bare	-9.40806
▁prepared	-9.409
▁serious	-9.40937
▁discovered	-9.41368
▁smiling	-9.41422
▁weather	-9.41422
▁edward	-9.41423
▁spread	-9.41429
▁catch	-9.41608
▁habit	-9.41823
▁servant	-9.41947
▁port	-9.41979
▁toby	-9.42021
▁ear	-9.42197
▁due	-9.42402
▁cur	-9.42409
▁breakfast	-9.42497
▁william	-9.42498
▁chamber	-9.425
▁terror	-9.42517
▁considerable	-9.42543
▁tired	-9.42568
▁vain	-9.42582
▁spite	-9.42584
▁dry	-9.42587
out	-9.42674
▁roll	-9.42824
▁cat	-9.42856
▁passing	-9.42884
▁finished	-9.42895
▁gun	-9.43224
if	-9.43345
▁content	-9.43452
▁na	-9.43473
▁bottom	-9.43584
▁drink	-9.43584
▁future	-9.43584
▁rachel	-9.43584
▁proud	-9.43585
▁firm	-9.43733
no	-9.43918
▁noise	-9.43923
▁drawing	-9.44174
▁slight	-9.44247
▁dog	-9.44313
▁rise	-9.44506
▁color	-9.44506
▁liked	-9.4456
▁favor	-9.44678
▁catherine	-9.44683
▁nobody	-9.44683
▁roof	-9.44683
▁wealth	-9.44684
▁tender	-9.44722
▁drawn	-9.44834
▁determined	-9.44935
▁mad	-9.44944
ble	-9.45196
▁remembered	-9.45257
▁opening	-9.45364
▁flowers	-9.45409
▁knowing	-9.45587
▁ideas	-9.45661
▁glass	-9.4567
▁growing	-9.45675
▁di	-9.45746
▁gentle	-9.45758
▁motion	-9.45763
▁recover	-9.45794
▁knight	-9.45794
▁knows	-9.45801
▁mass	-9.45809
▁nice	-9.45824
▁sad	-9.45874
▁books	-9.46008
▁leg	-9.46227
▁heat	-9.46387
▁cloud	-9.46456
▁month	-9.4648
▁played	-9.46705
▁enjoy	-9.46737
▁cap	-9.46777
▁corn	-9.46815
▁knock	-9.46918
▁tongue	-9.4692
▁space	-9.46921
▁patsy	-9.46922
▁henry	-9.46929
▁jerry	-9.46931
▁mistress	-9.46944
▁shadow	-9.47603
▁calm	-9.47642
nt	-9.47876
▁accept	-9.47901
▁club	-9.48054
▁elizabeth	-9.48054
▁brain	-9.48054
▁store	-9.48105
▁cook	-9.4811
ier	-9.48117
▁song	-9.48308
▁looks	-9.48446
▁su	-9.48477
▁offer	-9.48792
▁ca	-9.48847
▁dare	-9.48905
ence	-9.49055
▁delight	-9.49068
▁wound	-9.49086
▁everywhere	-9.49203
▁george	-9.49203
▁peculiar	-9.49203
▁burst	-9.49204
▁ordinar	-9.49204
▁existence	-9.49207
▁presently	-9.49231
▁lucy	-9.493
▁frightened	-9.4942
▁carefully	-9.49482
▁lad	-9.49491
▁promised	-9.49632
ab	-9.49636
▁meaning	-9.49772
▁fun	-9.49817
▁lifted	-9.49824
▁jo	-9.50073
▁shoulder	-9.50208
▁brave	-9.50218
▁fail	-9.50261
▁affairs	-9.50355
▁regular	-9.50366
▁fond	-9.50367
▁fancy	-9.50371
▁key	-9.50381
▁justice	-9.5042
▁study	-9.50424
▁offered	-9.50511
▁mus	-9.50611
▁bore	-9.50632
▁wore	-9.50649
▁difficulty	-9.50753
▁lives	-9.51047
▁dollars	-9.51233
▁mistake	-9.51331
▁charles	-9.51543
▁teeth	-9.51543
▁breast	-9.51547
▁occupied	-9.51552
▁papa	-9.51557
▁sheep	-9.51558
▁deck	-9.51626
▁station	-9.51688
▁surprised	-9.52041
▁par	-9.52125
▁faint	-9.52248
▁prove	-9.52489
▁support	-9.52645
▁sisters	-9.52689
▁ourselves	-9.52733
▁sympathy	-9.52733
▁angry	-9.52736
▁ruth	-9.52746
▁imagination	-9.52749
▁holding	-9.52768
▁excited	-9.52813
▁push	-9.53061
ned	-9.53495
▁creature	-9.53648
▁fat	-9.53656
▁feelings	-9.53825
▁concern	-9.53869
▁maid	-9.53898
▁altogether	-9.53938
▁empty	-9.53938
▁leap	-9.53938
▁hurt	-9.53939
▁task	-9.53939
▁join	-9.5394
▁bold	-9.53946
▁claim	-9.53949
▁dragon	-9.5395
▁physical	-9.54007
▁seized	-9.54177
▁sand	-9.54213
ag	-9.54234
▁servants	-9.54569
▁charming	-9.54676
▁degree	-9.54878
▁shown	-9.54939
▁lu	-9.54948
▁likely	-9.55021
▁depend	-9.55138
▁fruit	-9.55158
▁satisfied	-9.55158
▁wrote	-9.55158
▁moving	-9.55158
▁opposite	-9.55159
▁rough	-9.55164
▁hurry	-9.55168
▁price	-9.5518
▁awful	-9.55181
▁flash	-9.5519
▁spra	-9.55217
▁affection	-9.5522
▁fingers	-9.55386
▁agreed	-9.55393
▁perceived	-9.55608
▁fixed	-9.55647
▁murder	-9.55672
▁comp	-9.55751
▁telling	-9.55759
bo	-9.55856
▁bu	-9.5596
ign	-9.56069
der	-9.56109
▁sword	-9.56146
▁imagine	-9.56163
▁finger	-9.56166
▁gate	-9.56202
▁explained	-9.56263
▁coast	-9.56392
▁dick	-9.56409
▁cool	-9.56413
▁dangerous	-9.56461
▁insist	-9.5657
▁weak	-9.56664
▁united	-9.56707
▁buy	-9.56725
▁greatly	-9.5674
▁plan	-9.56863
▁fill	-9.56976
▁ears	-9.57032
▁higher	-9.5728
▁health	-9.57328
▁companions	-9.57381
▁possessed	-9.57415
▁animals	-9.57561
▁formed	-9.5761
▁advance	-9.57638
▁method	-9.57642
▁cheer	-9.57662
lu	-9.58003
▁leaves	-9.58008
▁sh	-9.58062
▁quietly	-9.58469
▁smoke	-9.58729
▁laughing	-9.58853
▁sixteen	-9.58874
▁conduct	-9.58898
▁flew	-9.58908
▁carlyle	-9.58909
▁memory	-9.58909
▁graham	-9.58913
▁former	-9.58973
▁cow	-9.58987
▁resolved	-9.58988
che	-9.59031
▁secure	-9.59059
▁hills	-9.59142
▁windows	-9.59144
ile	-9.59796
▁america	-9.59978
▁heads	-9.59991
▁seek	-9.60015
▁bird	-9.60066
▁falling	-9.60096
▁faith	-9.60162
▁awake	-9.6018
▁curiosity	-9.6019
▁language	-9.6019
▁double	-9.60193
▁loose	-9.60196
▁adam	-9.60205
do	-9.60208
▁pointed	-9.60215
▁demand	-9.60217
▁hotel	-9.60223
▁ju	-9.60225
▁rising	-9.60229
▁engaged	-9.60252
▁upper	-9.60391
▁wash	-9.60415
▁thrown	-9.6045
▁aware	-9.60567
▁powerful	-9.60699
▁travel	-9.60728
▁serve	-9.6078
▁brothers	-9.60789
▁whispered	-9.60883
▁inside	-9.61136
▁nation	-9.613
▁smooth	-9.61489
▁example	-9.61489
▁religion	-9.61489
▁absence	-9.61489
▁seventeen	-9.61489
▁print	-9.61505
▁dreadful	-9.61603
▁shining	-9.61661
▁required	-9.61734
▁consider	-9.61754
▁creatures	-9.61805
▁original	-9.61806
fe	-9.61911
▁sum	-9.62028
▁spoken	-9.62037
▁produced	-9.62067
▁papers	-9.62319
▁flat	-9.62336
▁touched	-9.62376
▁charge	-9.62441
▁pursu	-9.62776
▁system	-9.62804
▁excellent	-9.62805
▁middle	-9.62805
▁physician	-9.62808
▁excitement	-9.62812
▁value	-9.62814
tle	-9.62884
▁oak	-9.62905
▁stepp	-9.62923
▁loss	-9.6295
▁nose	-9.63069
▁listened	-9.63231
▁rid	-9.6359
▁bitter	-9.63691
▁advanced	-9.63744
▁discover	-9.63868
▁shoulders	-9.64051
▁knit	-9.64113
artagnan	-9.64138
▁asleep	-9.64138
▁corporal	-9.64138
▁movement	-9.6415
▁excuse	-9.64162
▁farther	-9.64168
▁supposed	-9.64173
▁pick	-9.64199
▁sixty	-9.64205
▁ice	-9.64439
▁weeks	-9.64466
▁fields	-9.64502
▁proved	-9.6454
▁mar	-9.64838
▁remarked	-9.65136
▁pause	-9.65225
▁rate	-9.65227
▁paris	-9.65455
▁establish	-9.65457
▁fool	-9.65468
▁admit	-9.65483
▁couple	-9.65489
▁devil	-9.65489
▁surface	-9.65489
▁royal	-9.6549
▁rare	-9.65492
▁ver	-9.65495
▁pride	-9.65501
▁affair	-9.65503
▁professor	-9.65513
▁sake	-9.65533
▁dale	-9.6554
▁vast	-9.65552
▁distinguish	-9.65583
▁failed	-9.65612
▁gu	-9.65652
▁cost	-9.65679
ov	-9.65681
per	-9.65773
▁refused	-9.65935
ga	-9.66098
▁loud	-9.66188
▁pot	-9.66225
▁meal	-9.66354
▁proper	-9.6641
▁wi	-9.66461
den	-9.66472
▁fairy	-9.66653
▁tom	-9.66722
▁size	-9.66744
▁frequent	-9.66859
▁ahead	-9.66859
▁marilla	-9.66859
▁progress	-9.66859
▁drove	-9.66859
▁dozen	-9.6686
▁relief	-9.66861
▁adventure	-9.66863
▁pack	-9.66881
▁pair	-9.66881
▁mental	-9.66887
▁impression	-9.66962
▁wounded	-9.67001
▁mud	-9.67121
▁fully	-9.67234
▁disappeared	-9.6726
▁needed	-9.6742
▁fra	-9.6753
▁interesting	-9.67559
▁lover	-9.67567
▁mile	-9.67584
lin	-9.67642
▁parts	-9.67689
▁notic	-9.6777
▁drive	-9.6785
▁calling	-9.67899
▁german	-9.6792
▁sorrow	-9.67935
▁ordered	-9.68109
▁control	-9.68234
▁coronel	-9.68248
▁emperor	-9.68248
▁splendid	-9.68248
▁unknown	-9.68248
▁acquaintance	-9.68249
▁gently	-9.6825
▁christian	-9.6826
▁lamp	-9.6827
▁render	-9.68281
▁suffering	-9.68332
▁animal	-9.68339
▁note	-9.68449
ah	-9.68503
▁cla	-9.68546
▁fly	-9.68632
act	-9.68762
▁shame	-9.6877
▁clouds	-9.68823
▁parents	-9.68854
▁slow	-9.6919
some	-9.69426
▁report	-9.69514
▁win	-9.69612
▁arthur	-9.69656
▁hurried	-9.69656
▁kingdom	-9.69657
▁message	-9.69657
▁occurred	-9.69657
▁risk	-9.69657
▁forgive	-9.69658
▁odd	-9.69667
▁busy	-9.69668
▁information	-9.69676
▁lack	-9.69699
▁tro	-9.69715
▁fam	-9.69765
▁attend	-9.69775
ight	-9.69777
▁share	-9.69792
▁birds	-9.69804
▁explain	-9.69804
▁waited	-9.6982
▁fleet	-9.69857
▁pity	-9.69924
▁crown	-9.6995
▁wishes	-9.70195
▁succeeded	-9.70253
▁questions	-9.70279
▁informed	-9.7029
he	-9.70357
▁directly	-9.70508
▁hu	-9.70572
ade	-9.70742
▁ja	-9.70745
▁trade	-9.70771
▁dy	-9.70808
▁lean	-9.70822
▁matters	-9.70897
▁shade	-9.71048
▁contrary	-9.71085
▁countenance	-9.71085
▁horror	-9.71085
▁philip	-9.71085
▁difference	-9.71088
▁hidden	-9.71088
▁cabin	-9.7109
▁popular	-9.7109
▁huge	-9.71095
▁authority	-9.71106
▁j	-9.71136
▁el	-9.71251
▁interested	-9.71259
au	-9.71292
▁ships	-9.71533
▁settled	-9.71598
▁moments	-9.7191
▁approached	-9.72036
▁moder	-9.72144
▁suggested	-9.72229
▁working	-9.72341
▁lovely	-9.72476
▁police	-9.72512
▁cliff	-9.72534
▁ghost	-9.72534
▁majesty	-9.72534
▁supper	-9.72534
▁distant	-9.72534
▁stock	-9.72538
▁colonel	-9.72539
▁host	-9.7255
▁tramp	-9.72579
let	-9.72585
▁pour	-9.7261
▁chain	-9.72627
▁slipp	-9.72682
▁pin	-9.7276
pa	-9.72811
▁rank	-9.72958
go	-9.72995
▁events	-9.73013
▁fe	-9.73033
▁wor	-9.73083
ey	-9.7328
▁pi	-9.73344
up	-9.73345
▁curious	-9.73536
▁hoped	-9.73572
▁civil	-9.73579
▁nearer	-9.7366
▁desired	-9.73792
▁caus	-9.73797
board	-9.73933
▁century	-9.74005
▁conseil	-9.74005
▁constant	-9.74005
▁evidence	-9.74005
▁merchant	-9.74005
▁official	-9.74005
▁sentiment	-9.74005
▁minister	-9.74005
▁solemn	-9.74005
▁delay	-9.74005
▁james	-9.74005
▁match	-9.74006
▁foreign	-9.74007
▁arose	-9.74008
▁bag	-9.74037
▁remarkable	-9.74119
▁grey	-9.74166
▁fourth	-9.74199
▁mention	-9.74351
▁teacher	-9.74373
▁bull	-9.74385
▁orders	-9.74441
▁charm	-9.7459
▁mor	-9.74787
▁eighty	-9.74927
▁unc	-9.74962
▁mist	-9.75018
▁faces	-9.75169
▁hearing	-9.75199
wa	-9.75223
▁bent	-9.75274
▁com	-9.75281
▁picked	-9.75421
▁conscious	-9.75426
▁college	-9.75497
▁examine	-9.75497
▁stupid	-9.75497
▁yesterday	-9.75497
▁fault	-9.75497
▁mouse	-9.75498
▁playing	-9.75499
▁turtle	-9.75501
▁crack	-9.75506
▁knees	-9.75507
▁native	-9.75512
▁sold	-9.7554
her	-9.75577
▁sought	-9.75609
▁ceased	-9.75629
▁tale	-9.75755
▁gain	-9.7578
▁roman	-9.75781
▁trip	-9.75889
▁prisoner	-9.75967
▁v	-9.76051
▁eggs	-9.76107
▁flu	-9.76291
ft	-9.76333
▁stage	-9.76476
▁named	-9.76519
▁min	-9.76563
pi	-9.76694
▁hunt	-9.76883
▁despair	-9.77012
▁square	-9.77012
▁spend	-9.77013
▁bought	-9.77016
▁throat	-9.77031
▁rome	-9.77034
▁portion	-9.77223
▁pipe	-9.77239
▁ta	-9.77245
mo	-9.77271
▁increased	-9.77283
▁writing	-9.77318
▁intended	-9.77616
▁doors	-9.77749
▁instantly	-9.77796
▁served	-9.77874
▁proceeded	-9.78063
▁height	-9.78216
ba	-9.78238
▁trans	-9.78516
▁demanded	-9.78519
▁admiration	-9.78551
▁liberty	-9.78551
▁opportunity	-9.78551
▁seldom	-9.78551
▁slept	-9.78551
▁request	-9.78551
▁crime	-9.78551
▁elsie	-9.78552
▁consent	-9.78552
▁motive	-9.78557
▁avoid	-9.78557
▁admitted	-9.78558
▁includ	-9.78559
▁begun	-9.78561
ham	-9.78618
▁spirits	-9.78632
▁consideration	-9.78682
ible	-9.78701
da	-9.78706
▁suggestion	-9.78721
▁possess	-9.78743
▁apparently	-9.78763
▁address	-9.7883
ring	-9.79126
ow	-9.79338
ster	-9.79388
▁shouted	-9.79536
▁patient	-9.79628
▁type	-9.79646
gen	-9.79833
▁fur	-9.79836
▁gra	-9.79877
▁prison	-9.79885
▁machine	-9.80079
▁advice	-9.80113
▁innocent	-9.80113
▁pretend	-9.80113
▁mysterious	-9.80114
▁peep	-9.80114
▁anyone	-9.80118
▁duke	-9.80119
bu	-9.80127
▁severe	-9.80155
▁delighted	-9.80278
▁plum	-9.80289
▁accepted	-9.80298
▁gaze	-9.80325
j	-9.80348
▁asking	-9.80367
▁lines	-9.806
ill	-9.80842
▁streets	-9.80941
ook	-9.80951
▁bay	-9.80954
▁fre	-9.80992
▁crow	-9.81075
nce	-9.81421
▁pl	-9.81433
▁fer	-9.81513
▁drop	-9.81637
▁europe	-9.81664
pped	-9.81685
▁band	-9.81685
▁entrance	-9.81701
▁lincoln	-9.81701
▁widow	-9.81701
▁clever	-9.81701
▁mamma	-9.81701
▁stiff	-9.81701
▁credit	-9.81701
▁heap	-9.81708
▁daily	-9.81712
▁political	-9.81713
▁flight	-9.81718
▁argument	-9.81718
▁apartment	-9.81723
▁page	-9.81774
▁elder	-9.81798
▁dust	-9.81814
▁goes	-9.81829
▁suggest	-9.8186
▁national	-9.81869
▁poet	-9.81869
by	-9.81873
▁baby	-9.81879
▁tent	-9.82084
ti	-9.82182
▁vessel	-9.82185
va	-9.82199
▁aid	-9.8221
▁vote	-9.82299
▁er	-9.82422
▁hut	-9.82439
br	-9.82527
▁hunting	-9.82656
▁pe	-9.82667
▁l	-9.8276
▁possibl	-9.82988
ably	-9.83049
▁ne	-9.83126
▁ben	-9.83266
▁basket	-9.83314
▁consequence	-9.83314
▁kitchen	-9.83314
▁nevertheless	-9.83314
▁treasure	-9.83314
▁veil	-9.83314
▁assembl	-9.83314
▁grief	-9.83315
▁da	-9.83335
▁season	-9.8335
und	-9.83401
▁virginia	-9.83418
▁capable	-9.83418
▁victory	-9.83433
▁dull	-9.83451
▁float	-9.83533
▁behold	-9.83535
▁sin	-9.83689
▁witness	-9.83699
▁arch	-9.83735
▁meadow	-9.83839
▁pen	-9.83979
▁merry	-9.84086
ric	-9.84099
▁fir	-9.84223
▁fate	-9.84372
▁immediate	-9.84476
▁cover	-9.84527
▁dance	-9.84676
▁custom	-9.84935
▁eleanor	-9.84953
▁bluff	-9.84953
▁parliament	-9.84953
▁principal	-9.84953
▁proportion	-9.84953
▁resolution	-9.84953
▁sensation	-9.84953
▁unusual	-9.84953
▁income	-9.84953
▁jew	-9.84954
▁explanation	-9.84959
▁visible	-9.8496
▁ease	-9.84969
▁laughter	-9.84983
▁leader	-9.84985
▁terms	-9.8503
▁trace	-9.85032
▁joined	-9.8504
ating	-9.85041
▁harm	-9.85055
▁wedding	-9.85165
▁du	-9.85312
▁alarm	-9.85324
▁laws	-9.85339
▁clearly	-9.85465
ied	-9.85526
▁employed	-9.85564
▁flower	-9.85764
▁members	-9.85955
▁particularly	-9.86067
ke	-9.86152
▁ri	-9.86158
▁struggle	-9.86257
▁addressed	-9.86318
▁ways	-9.86341
▁draw	-9.86424
▁seated	-9.86508
▁confess	-9.86512
▁trim	-9.86561
▁protest	-9.866
▁mis	-9.86616
▁afford	-9.8662
▁amount	-9.8662
▁brilliant	-9.8662
▁record	-9.8662
▁sacrifice	-9.8662
▁estate	-9.8662
▁pardon	-9.8662
▁attitude	-9.86621
▁shock	-9.86623
▁cordial	-9.86624
▁importance	-9.86625
▁accompani	-9.86629
▁proof	-9.8663
▁plent	-9.86642
▁favour	-9.86691
ward	-9.86996
▁sides	-9.87042
▁tar	-9.8713
▁saved	-9.87458
▁member	-9.87489
ized	-9.87533
▁circle	-9.87665
ze	-9.87965
▁temple	-9.88296
▁cruel	-9.88298
▁false	-9.88311
▁unto	-9.88314
▁patience	-9.88315
▁satisfaction	-9.88315
▁flesh	-9.88315
▁religious	-9.88315
▁retreat	-9.88315
▁similar	-9.88315
▁spiritual	-9.88315
▁dawn	-9.88315
▁buried	-9.88315
▁confidence	-9.88316
▁sunday	-9.88326
▁fox	-9.88327
▁extraordinary	-9.88335
▁emma	-9.88336
tte	-9.88371
lly	-9.88408
▁snapp	-9.88426
▁putt	-9.88526
▁recognized	-9.88687
▁obtain	-9.88764
▁remark	-9.88774
▁ob	-9.88781
▁preserv	-9.88793
▁lock	-9.88812
▁flow	-9.88898
▁removed	-9.88945
▁virtue	-9.89016
▁speed	-9.89324
▁nora	-9.89354
▁wants	-9.89613
▁mentioned	-9.89795
▁organ	-9.89828
▁dreams	-9.89847
▁jeff	-9.90036
▁conscience	-9.90039
▁immense	-9.90039
▁nervous	-9.90039
▁pirate	-9.90039
▁priscilla	-9.90039
▁twice	-9.90039
▁unfortunate	-9.90039
▁unhappy	-9.90039
▁snake	-9.90039
▁washington	-9.90039
▁bodies	-9.90039
▁vague	-9.9004
▁jason	-9.9004
▁gift	-9.90044
▁angel	-9.90049
▁bride	-9.90055
▁rode	-9.90057
▁complain	-9.9006
▁anger	-9.90068
▁fold	-9.90087
▁concluded	-9.90143
▁voices	-9.90274
ite	-9.90318
▁cheerful	-9.90326
▁wicked	-9.9034
▁highest	-9.90386
▁ride	-9.90419
▁sailor	-9.90477
▁kiss	-9.90506
▁peer	-9.90547
▁described	-9.90614
▁paus	-9.90624
▁principle	-9.90802
▁yard	-9.90852
iz	-9.91015
light	-9.91043
▁eager	-9.91241
▁resist	-9.91779
▁regret	-9.91787
▁anybody	-9.91793
▁diamond	-9.91793
▁privilege	-9.91793
▁savage	-9.91793
▁somebody	-9.91793
▁yield	-9.91793
▁otherwise	-9.91793
▁praise	-9.91793
▁problem	-9.91793
▁ugly	-9.91793
▁bobby	-9.91794
▁hollow	-9.91801
▁desk	-9.91803
▁foolish	-9.91828
▁startled	-9.91841
▁skill	-9.91846
▁observation	-9.91868
▁nest	-9.91952
▁distress	-9.91999
▁truly	-9.92095
▁keeping	-9.92161
▁officers	-9.92207
▁visitor	-9.92262
▁log	-9.92339
▁forms	-9.92373
▁soldier	-9.92662
▁plainly	-9.92949
▁violent	-9.93092
▁evident	-9.93101
ave	-9.9318
▁burn	-9.93214
io	-9.93336
▁hearts	-9.93398
▁christ	-9.93563
▁birth	-9.93576
▁gleam	-9.93579
▁intelligence	-9.93579
▁lieutenant	-9.93579
▁superior	-9.93579
▁universal	-9.93579
▁pierre	-9.93579
▁milk	-9.93579
▁queer	-9.93579
▁jesus	-9.93581
▁wheel	-9.93589
▁region	-9.936
▁safety	-9.93629
ude	-9.93639
▁surrounding	-9.93688
▁inquired	-9.93744
ugh	-9.93762
▁reading	-9.93782
▁pace	-9.93825
▁wretched	-9.94104
ack	-9.94191
▁stairs	-9.9421
ified	-9.94467
▁dogs	-9.94483
▁conc	-9.94495
▁commander	-9.94585
▁fled	-9.94623
▁earl	-9.94626
▁san	-9.9468
▁intention	-9.94725
▁rage	-9.9475
▁ga	-9.9476
▁entire	-9.9492
▁gained	-9.95117
ative	-9.95137
▁produce	-9.95289
wood	-9.95313
▁arrival	-9.95397
▁choice	-9.95397
▁impulse	-9.95397
▁meanwhile	-9.95397
▁suspicion	-9.95397
▁summon	-9.95397
▁thrust	-9.95397
▁grasp	-9.95399
▁familiar	-9.95401
▁style	-9.95403
▁countess	-9.95408
▁merit	-9.95408
▁hastily	-9.95409
▁stern	-9.95438
▁sport	-9.9544
▁pitch	-9.95463
▁hungry	-9.95466
▁louise	-9.95478
▁glanc	-9.95487
▁provided	-9.95552
▁relations	-9.95589
our	-9.95674
▁conditions	-9.95754
▁successful	-9.95835
▁rapidly	-9.95861
hi	-9.95927
▁alas	-9.9598
▁ab	-9.9657
▁owner	-9.9665
▁naturally	-9.96707
▁net	-9.96731
▁pieces	-9.96832
▁agree	-9.96836
▁proceed	-9.96927
ung	-9.96972
aw	-9.97014
▁dread	-9.97086
▁jim	-9.97174
▁propos	-9.97211
▁administration	-9.97249
▁cosette	-9.97249
▁eleven	-9.97249
▁glory	-9.97249
▁magistrate	-9.97249
▁strike	-9.97249
▁bottle	-9.97249
▁reckon	-9.97249
▁moreover	-9.9725
▁throne	-9.97284
▁pool	-9.9729
▁trial	-9.97308
▁dignity	-9.97309
▁eric	-9.97313
las	-9.97317
▁fla	-9.9735
▁baron	-9.97374
▁yo	-9.97456
▁enjoyed	-9.97497
▁rooms	-9.97552
▁closely	-9.97736
▁haven	-9.97801
▁dared	-9.97834
▁cor	-9.97892
▁mids	-9.98067
▁peasant	-9.9829
▁softly	-9.98339
▁affected	-9.98455
▁mu	-9.98561
▁marked	-9.98567
▁brief	-9.9865
▁rapid	-9.9866
▁require	-9.98779
▁gaz	-9.98913
ice	-9.98921
▁brow	-9.98936
▁ganem	-9.99136
▁marguerite	-9.99136
▁correct	-9.99136
▁francs	-9.99136
▁milita	-9.99136
▁unexpected	-9.99136
▁voyage	-9.99136
▁freedom	-9.99136
▁mortal	-9.99136
▁nodded	-9.99137
▁fought	-9.99137
▁science	-9.99137
▁polite	-9.99138
▁forgot	-9.99139
▁vision	-9.99143
▁education	-9.99159
▁reward	-9.99181
▁governor	-9.99186
▁devoted	-9.99469
▁plans	-9.99471
uous	-9.99487
▁ni	-9.99543
▁sevent	-9.99588
▁interrupted	-9.99618
▁continue	-9.99637
▁waters	-9.99726
▁showing	-10.0011
▁cloth	-10.0011
▁beg	-10.0016
▁folks	-10.0023
▁bearing	-10.0045
ists	-10.0057
▁extreme	-10.0058
oke	-10.0058
▁et	-10.0077
▁holy	-10.0081
▁approach	-10.0082
▁hopes	-10.0083
▁sl	-10.0092
qua	-10.0092
▁glimpse	-10.0106
▁sunshine	-10.0106
▁drift	-10.0106
▁david	-10.0106
▁level	-10.0106
▁representative	-10.0106
▁quarrel	-10.0106
▁plung	-10.0106
▁salt	-10.0107
▁giant	-10.0108
▁travell	-10.0109
▁stout	-10.0109
▁gradually	-10.0111
▁je	-10.0112
▁acquainted	-10.0115
▁chosen	-10.0119
▁reality	-10.0121
▁realized	-10.0124
▁driven	-10.0136
▁gen	-10.0138
▁ven	-10.0149
▁cases	-10.0154
▁forces	-10.0167
▁limit	-10.0175
▁armed	-10.0194
▁bon	-10.0213
▁points	-10.0213
▁hang	-10.0218
wi	-10.0219
▁range	-10.0227
ctually	-10.0252
▁test	-10.0256
cri	-10.0259
▁august	-10.0301
▁neighbour	-10.0302
▁thorough	-10.0302
▁council	-10.0302
▁exercise	-10.0302
▁nautilus	-10.0302
▁precious	-10.0302
▁somewhere	-10.0302
▁sylvia	-10.0302
▁victim	-10.0302
▁dutch	-10.0302
▁ocean	-10.0302
▁overcome	-10.0302
▁recall	-10.0302
▁compelled	-10.0303
▁bridge	-10.0303
▁slim	-10.0303
ville	-10.0304
▁wake	-10.0305
▁tight	-10.0306
▁inclined	-10.0309
▁active	-10.0311
▁consciousness	-10.0311
▁comfortable	-10.0317
▁sigh	-10.0324
▁ideal	-10.0331
▁powers	-10.0336
▁practice	-10.0342
▁easter	-10.0344
▁cal	-10.0353
▁affect	-10.0359
▁accident	-10.0362
▁created	-10.0363
▁stars	-10.0364
▁desert	-10.0373
▁younger	-10.0389
▁beard	-10.0389
▁approaching	-10.0395
▁lies	-10.0413
▁lily	-10.0427
▁newspaper	-10.043
▁flying	-10.0432
▁mon	-10.0438
▁million	-10.044
▁swift	-10.0453
▁fa	-10.0464
▁increase	-10.0466
ius	-10.0473
qui	-10.0486
▁shout	-10.0487
▁listening	-10.049
▁figures	-10.0491
wept	-10.0493
▁blush	-10.0502
▁matthew	-10.0502
▁medicine	-10.0502
▁deserve	-10.0502
▁remind	-10.0502
▁connection	-10.0504
▁title	-10.0504
▁reflection	-10.0515
▁useful	-10.0515
▁pine	-10.0516
▁assured	-10.0527
▁wings	-10.0529
▁pur	-10.0532
▁se	-10.0537
▁funn	-10.054
▁rocks	-10.0563
▁kindness	-10.0563
▁n	-10.0581
▁weight	-10.0587
▁wondered	-10.0615
kin	-10.0647
▁flame	-10.0676
▁describe	-10.0693
▁community	-10.0706
▁desperate	-10.0706
▁enemies	-10.0706
▁melancholy	-10.0706
▁mirror	-10.0706
▁recommend	-10.0706
▁shoot	-10.0706
▁blame	-10.0706
▁volume	-10.0706
▁shaking	-10.0706
▁southern	-10.0706
▁mystery	-10.0706
▁everyone	-10.0706
▁udo	-10.0707
▁image	-10.0707
▁spanish	-10.0707
▁patty	-10.0708
▁failure	-10.0708
▁frame	-10.0712
▁alice	-10.0713
▁reign	-10.0713
▁beheld	-10.0714
▁composed	-10.0714
▁kate	-10.0716
▁modest	-10.0716
▁branches	-10.0717
▁magnificent	-10.0718
▁parish	-10.0721
▁gi	-10.0726
par	-10.073
▁sleeping	-10.0731
rid	-10.0732
▁announced	-10.0742
▁har	-10.0761
▁eagerly	-10.0762
ide	-10.0775
▁arab	-10.0801
▁eating	-10.0803
▁amid	-10.0806
rus	-10.0831
▁quo	-10.0839
ner	-10.0845
▁card	-10.0862
the	-10.0869
▁earnest	-10.0869
▁hole	-10.087
▁careful	-10.0883
tted	-10.09
▁discuss	-10.0904
▁facts	-10.0905
▁pronounc	-10.0914
▁appeal	-10.0914
▁district	-10.0914
▁forehead	-10.0914
▁incident	-10.0914
▁thunder	-10.0914
▁furnish	-10.0914
▁strain	-10.0914
▁element	-10.0914
▁silk	-10.0914
▁recent	-10.0914
▁feast	-10.0914
▁dancing	-10.0914
▁maintain	-10.0915
▁trick	-10.0915
▁ashamed	-10.0916
▁stuff	-10.0916
▁bobo	-10.0919
▁sank	-10.092
▁lodge	-10.0921
▁lights	-10.0922
▁treatment	-10.0924
▁banks	-10.0925
▁grim	-10.0928
▁plate	-10.0931
▁sang	-10.0934
▁sounds	-10.0935
▁becoming	-10.0938
aff	-10.0943
▁scattered	-10.0943
shone	-10.0947
▁fighting	-10.096
▁painful	-10.0961
▁ended	-10.0966
▁hide	-10.0966
▁extremely	-10.0967
ched	-10.097
▁actual	-10.0972
eth	-10.0987
▁grant	-10.0999
▁singing	-10.1008
▁handed	-10.1015
▁stared	-10.1032
▁pile	-10.1053
▁instrument	-10.1066
▁distinct	-10.1069
▁afterward	-10.1085
fall	-10.112
▁nineteen	-10.1124
▁bloom	-10.1127
▁monsieur	-10.1127
▁passenger	-10.1127
▁profound	-10.1127
▁solid	-10.1127
▁relative	-10.1128
▁monster	-10.1128
▁accustom	-10.1128
▁smith	-10.1128
▁marius	-10.1128
▁candle	-10.1129
▁development	-10.1129
▁household	-10.1132
▁reasons	-10.1132
▁agreeable	-10.1134
▁kindly	-10.1135
▁base	-10.1135
▁cities	-10.1135
▁tails	-10.114
▁necessity	-10.1142
uff	-10.1143
▁regarded	-10.1149
▁chest	-10.115
▁tip	-10.1153
▁gloomy	-10.1154
▁hate	-10.116
▁separated	-10.1181
▁lion	-10.1187
▁dim	-10.1198
▁si	-10.1209
▁design	-10.1214
▁ali	-10.1222
▁invit	-10.1222
▁hanging	-10.1227
▁features	-10.1233
▁sole	-10.1243
▁trap	-10.1247
▁objects	-10.1251
▁hit	-10.1253
▁manag	-10.1261
▁reader	-10.1273
▁hast	-10.128
▁origin	-10.1291
▁cheek	-10.1292
▁bal	-10.1297
▁wondering	-10.1304
▁rob	-10.1318
▁shake	-10.1325
▁astonishment	-10.1345
▁burden	-10.1345
▁fifth	-10.1345
▁suppress	-10.1345
▁addition	-10.1345
▁check	-10.1345
▁counsel	-10.1345
▁delicate	-10.1345
▁piano	-10.1345
▁twist	-10.1345
▁brush	-10.1345
▁shelter	-10.1345
▁annie	-10.1345
▁block	-10.1345
▁compliment	-10.1345
▁apple	-10.1346
▁local	-10.1346
▁western	-10.1347
▁mask	-10.1347
▁urge	-10.135
▁cup	-10.1353
▁tower	-10.1354
▁crew	-10.1355
▁ned	-10.1356
▁russian	-10.1356
▁prim	-10.1364
▁rear	-10.1376
▁subjects	-10.1383
▁wandering	-10.1384
▁exist	-10.1398
▁wandered	-10.1401
▁owe	-10.1413
▁escaped	-10.1428
ves	-10.1436
▁descend	-10.1438
▁destroy	-10.1438
▁rang	-10.1461
▁destroyed	-10.1472
▁build	-10.1476
▁fro	-10.148
▁effects	-10.1512
▁waves	-10.152
▁wishing	-10.1522
▁sur	-10.1523
▁venture	-10.1527
ability	-10.1532
gon	-10.1546
▁jimm	-10.1548
▁breaking	-10.1553
▁waste	-10.1559
▁capital	-10.1563
▁instinct	-10.1565
▁officer	-10.1565
▁prefer	-10.1566
▁contempt	-10.1566
▁shepherd	-10.1567
▁atmosphere	-10.1567
▁conclusion	-10.1567
▁defend	-10.1567
▁description	-10.1567
▁edith	-10.1567
▁enormous	-10.1567
▁exhausted	-10.1567
▁ferko	-10.1567
▁horribl	-10.1567
▁intense	-10.1567
▁labour	-10.1567
▁landscape	-10.1567
▁natasha	-10.1567
▁negro	-10.1567
▁prospect	-10.1567
▁species	-10.1567
▁leaf	-10.1567
▁resumed	-10.1567
▁score	-10.1567
▁mercy	-10.1567
▁betray	-10.1567
▁lawyer	-10.1568
▁brook	-10.1568
▁horn	-10.1568
▁assistance	-10.1569
▁groan	-10.1569
▁assist	-10.1571
▁helen	-10.1571
▁choose	-10.1572
▁lone	-10.1572
▁dash	-10.1577
▁maiden	-10.158
pt	-10.1583
▁nurse	-10.1584
▁appointed	-10.1586
▁surrounded	-10.1586
▁tear	-10.1596
▁gay	-10.1608
▁hated	-10.1622
▁nay	-10.1636
▁event	-10.1647
▁shouting	-10.1668
▁vo	-10.1671
▁accordingly	-10.1674
▁threaten	-10.1704
▁counter	-10.1714
fully	-10.1721
▁lighted	-10.1724
▁rep	-10.1727
▁pal	-10.1731
▁obtained	-10.1734
▁artist	-10.1737
▁heavi	-10.1745
ach	-10.175
▁troop	-10.1757
▁helped	-10.1775
hood	-10.1778
▁protect	-10.1779
▁branch	-10.1782
▁hospital	-10.1783
▁spare	-10.1791
▁apart	-10.1792
▁resembl	-10.1792
▁ambition	-10.1794
▁astonished	-10.1794
▁craft	-10.1794
▁driving	-10.1794
▁energy	-10.1794
▁families	-10.1794
▁literature	-10.1794
▁sweep	-10.1794
▁tilney	-10.1794
▁trembling	-10.1794
▁diana	-10.1794
▁female	-10.1794
▁generous	-10.1794
▁intellectual	-10.1794
▁revolution	-10.1794
▁stories	-10.1794
▁orchard	-10.1794
▁gallant	-10.1795
▁marble	-10.1795
▁worship	-10.1795
▁twin	-10.1796
▁june	-10.1797
▁neat	-10.1797
▁brownie	-10.1802
▁sensible	-10.1802
▁worst	-10.181
▁fishing	-10.181
▁date	-10.1813
▁crying	-10.1814
▁nations	-10.1816
▁maybe	-10.1818
▁useless	-10.1822
▁sta	-10.1823
▁butter	-10.1828
▁vari	-10.1829
▁troops	-10.1833
and	-10.1841
▁accomplished	-10.1852
▁tra	-10.1886
▁fellows	-10.1892
▁slightly	-10.1895
▁perform	-10.1898
▁val	-10.1911
▁imagined	-10.1914
▁willing	-10.1922
▁pant	-10.1924
▁stands	-10.1937
▁leaning	-10.1941
▁sighed	-10.1943
▁bless	-10.1955
▁pr	-10.1959
▁emotion	-10.1987
▁deni	-10.1991
oo	-10.2003
▁refuse	-10.2005
▁goodness	-10.2005
ther	-10.2005
▁hop	-10.2023
▁triumph	-10.2025
▁rail	-10.2025
▁neglect	-10.2027
▁swallow	-10.2027
▁abroad	-10.2027
▁beloved	-10.2027
▁committee	-10.2027
▁essential	-10.2027
▁expedition	-10.2027
▁grandfather	-10.2027
▁infinite	-10.2027
▁library	-10.2027
▁purple	-10.2027
▁spoil	-10.2027
▁villefort	-10.2027
▁likewise	-10.2027
▁salut	-10.2027
▁multitude	-10.2027
▁source	-10.2027
▁perceive	-10.2027
▁destruction	-10.2027
▁cheese	-10.2028
▁flock	-10.2028
▁string	-10.2029
▁loft	-10.2029
▁hail	-10.2033
▁spar	-10.2038
▁convinced	-10.2038
▁grove	-10.2043
▁damp	-10.2044
▁sha	-10.2045
▁hypnotiz	-10.205
▁setting	-10.2051
▁hero	-10.2067
tra	-10.2072
▁cheeks	-10.2085
▁discovery	-10.2086
ties	-10.2087
▁hastened	-10.2099
▁preserve	-10.2099
▁haste	-10.2104
▁millions	-10.2114
ef	-10.2131
▁whisper	-10.2137
▁suspected	-10.2139
▁lift	-10.2139
ification	-10.2149
▁yards	-10.2158
▁fearful	-10.216
▁noon	-10.2174
▁roar	-10.218
▁depths	-10.2183
▁names	-10.2186
▁unconscious	-10.2216
▁fierce	-10.2218
▁forever	-10.2222
▁slope	-10.2222
▁fo	-10.2224
▁sing	-10.2225
ea	-10.2232
▁feed	-10.2233
▁magic	-10.2241
▁bush	-10.2253
▁towns	-10.2254
▁jack	-10.2257
▁absorb	-10.2265
▁barricade	-10.2265
▁endeavor	-10.2265
▁enthusiasm	-10.2265
▁gratitude	-10.2265
▁hyacinth	-10.2265
▁mercer	-10.2265
▁perceval	-10.2265
▁psyche	-10.2265
▁reproach	-10.2265
▁reputation	-10.2265
▁scream	-10.2265
▁steep	-10.2265
▁thirteen	-10.2265
▁summit	-10.2265
▁defeat	-10.2265
▁echo	-10.2265
▁reveal	-10.2265
▁mood	-10.2265
▁await	-10.2265
▁mingled	-10.2265
▁constitution	-10.2265
▁loving	-10.2265
▁crawley	-10.2265
▁someone	-10.2265
▁engagement	-10.2266
▁arrangement	-10.2267
▁picket	-10.2269
▁miserable	-10.2269
▁goose	-10.2273
▁invitation	-10.2274
▁job	-10.2275
withstand	-10.2275
▁lament	-10.2279
most	-10.2282
▁sheet	-10.2302
▁classes	-10.2303
▁retired	-10.2308
▁hunger	-10.2313
▁steamer	-10.2329
▁disposed	-10.2349
▁july	-10.2354
▁older	-10.2356
▁flag	-10.2362
▁shoes	-10.237
▁humor	-10.2372
▁wit	-10.2379
▁deliver	-10.238
lie	-10.2383
▁interests	-10.2393
▁den	-10.2399
▁fl	-10.24
▁descended	-10.2405
▁roots	-10.2432
▁fisher	-10.2449
▁previous	-10.246
▁final	-10.2468
▁prisoners	-10.2468
ium	-10.2479
▁neighbors	-10.248
▁relation	-10.2484
▁lightn	-10.2494
work	-10.25
ina	-10.2504
▁anxiety	-10.2509
▁audience	-10.2509
▁bachelor	-10.2509
▁column	-10.2509
▁consult	-10.2509
▁empire	-10.2509
▁handkerchief	-10.2509
▁impatient	-10.2509
▁jenny	-10.2509
▁knife	-10.2509
▁sovereign	-10.2509
▁striking	-10.2509
▁thompson	-10.2509
▁fourteen	-10.2509
▁martian	-10.2509
▁poyser	-10.2509
▁thenardier	-10.2509
▁japanese	-10.2509
▁fetch	-10.2509
▁departure	-10.2509
▁mabel	-10.251
▁countries	-10.251
▁crook	-10.251
▁judgment	-10.2511
▁masters	-10.2512
▁nail	-10.2513
▁sentence	-10.2514
▁lane	-10.2517
▁delightful	-10.2518
▁wing	-10.252
▁discussion	-10.2521
▁rent	-10.2525
▁engineer	-10.2531
owing	-10.2532
▁list	-10.254
▁colored	-10.2548
▁arranged	-10.2549
▁lest	-10.2553
dding	-10.2579
▁graceful	-10.2587
▁sounded	-10.2595
▁newspapers	-10.2598
▁begg	-10.2602
stone	-10.2614
how	-10.2618
▁represent	-10.2629
▁delivered	-10.2639
▁glow	-10.2666
▁theory	-10.2679
▁ger	-10.268
▁plant	-10.2685
▁pat	-10.2686
▁kissed	-10.2691
▁crowded	-10.2694
▁falls	-10.2706
▁pounds	-10.2708
▁soil	-10.2727
▁minds	-10.2743
▁attract	-10.2747
▁accent	-10.2759
▁conception	-10.2759
▁experiment	-10.2759
▁plague	-10.2759
▁porthos	-10.2759
▁profit	-10.2759
▁shriek	-10.2759
▁contract	-10.2759
▁sazen	-10.2759
▁squire	-10.2759
▁vivid	-10.2759
▁extent	-10.2759
▁smell	-10.2759
▁keen	-10.2759
▁erect	-10.2759
▁hitherto	-10.2759
▁disappointment	-10.2759
▁stole	-10.2759
▁reviv	-10.276
▁regiment	-10.2761
▁buck	-10.2761
▁coward	-10.2763
▁pictures	-10.2769
▁operation	-10.2771
▁guilty	-10.2773
▁concerned	-10.2773
chi	-10.2778
▁signor	-10.279
▁deeply	-10.2792
▁expectation	-10.2796
bi	-10.2814
▁total	-10.2823
▁beating	-10.2836
▁barn	-10.2837
▁disturbed	-10.2846
▁mode	-10.285
▁joll	-10.286
▁preced	-10.2868
▁cont	-10.2877
▁conceal	-10.2882
cal	-10.2888
▁doubtful	-10.2901
ake	-10.2907
▁qua	-10.2917
gged	-10.2923
▁deserted	-10.2924
▁lit	-10.2947
▁measures	-10.2965
▁faithful	-10.2971
▁exchange	-10.2984
▁attended	-10.299
▁raise	-10.299
▁article	-10.3001
▁aim	-10.3002
▁term	-10.3002
▁fanci	-10.3003
▁beast	-10.3004
▁process	-10.301
▁dun	-10.3012
▁abandon	-10.3015
▁absurd	-10.3015
▁aspect	-10.3015
▁criminal	-10.3015
▁definite	-10.3015
▁florina	-10.3015
▁gesture	-10.3015
▁midnight	-10.3015
▁richmond	-10.3015
▁satisfy	-10.3015
▁singular	-10.3015
▁supreme	-10.3015
▁valuable	-10.3015
▁flutter	-10.3015
▁interval	-10.3015
▁penetrat	-10.3015
▁disease	-10.3015
▁sacred	-10.3015
▁misery	-10.3015
▁northern	-10.3015
▁confusion	-10.3015
▁feather	-10.3015
▁steadily	-10.3015
▁novel	-10.3015
▁saddle	-10.3016
▁genius	-10.3016
▁timber	-10.3016
itude	-10.3019
▁wagon	-10.3019
▁fence	-10.3019
▁comment	-10.3021
▁observe	-10.3021
▁sink	-10.3022
▁association	-10.3022
▁conviction	-10.3023
▁movements	-10.3023
▁joe	-10.3024
▁fed	-10.303
cit	-10.3033
▁preparation	-10.3035
▁idle	-10.3044
▁manners	-10.3062
▁applied	-10.3064
▁mate	-10.3099
▁tis	-10.3102
▁bitterly	-10.3109
▁sam	-10.3121
▁works	-10.3124
▁gas	-10.3126
▁teach	-10.3132
▁feared	-10.3133
▁rais	-10.314
ncy	-10.3145
▁changes	-10.3173
▁bones	-10.3188
▁cent	-10.3197
▁rays	-10.3216
▁today	-10.3223
▁exact	-10.3232
▁issue	-10.3244
▁gloom	-10.3245
▁seal	-10.325
▁impress	-10.3256
▁parted	-10.3257
▁exception	-10.3271
▁drunk	-10.3271
▁tribe	-10.3272
▁encourage	-10.3275
▁examination	-10.3278
▁glitter	-10.3278
▁holland	-10.3278
▁increasing	-10.3278
▁messenger	-10.3278
▁platform	-10.3278
▁poverty	-10.3278
▁provision	-10.3278
▁qualities	-10.3278
▁select	-10.3278
▁planchet	-10.3278
▁shirt	-10.3278
▁stoop	-10.3278
▁trunk	-10.3278
▁combat	-10.3278
▁variety	-10.3278
▁danglars	-10.3278
▁generation	-10.3278
▁confused	-10.3278
▁insult	-10.3278
▁committed	-10.3278
▁wren	-10.3278
▁dart	-10.3279
▁caroline	-10.3279
▁brand	-10.3279
▁powder	-10.3279
▁dirt	-10.328
▁debt	-10.328
▁joke	-10.3281
▁childhood	-10.3282
▁fever	-10.3282
▁mink	-10.3285
▁friendship	-10.3286
▁steady	-10.3288
▁bushes	-10.3292
▁backward	-10.3293
▁bark	-10.3294
▁equality	-10.3298
▁hesitated	-10.3301
▁statement	-10.3304
▁sunk	-10.3307
▁chin	-10.3307
▁disappointed	-10.3308
▁conf	-10.3308
▁introduced	-10.3312
like	-10.3316
▁objection	-10.3352
▁van	-10.3358
▁limbs	-10.3364
▁knee	-10.3368
▁ya	-10.3372
pher	-10.3373
▁attacked	-10.3374
▁handle	-10.3379
▁centre	-10.3381
▁jumped	-10.3388
▁extended	-10.3395
▁hay	-10.3396
all	-10.3396
▁prophet	-10.3412
▁ham	-10.3414
▁guns	-10.3414
▁suspect	-10.342
▁warn	-10.3424
▁citizens	-10.3462
ssed	-10.347
aries	-10.3483
▁straw	-10.3493
▁fortunate	-10.35
nch	-10.3505
▁seas	-10.3507
▁hypnoti	-10.3521
▁gar	-10.3523
▁divine	-10.3534
▁meat	-10.3537
▁tempt	-10.3537
▁attach	-10.3546
▁francis	-10.3547
▁gregg	-10.3547
▁accompany	-10.3548
▁anywhere	-10.3548
▁benefit	-10.3548
▁clerk	-10.3548
▁expense	-10.3548
▁fetnah	-10.3548
▁grateful	-10.3548
▁lukashka	-10.3548
▁numerous	-10.3548
▁rival	-10.3548
▁surgeon	-10.3548
▁flood	-10.3548
▁niece	-10.3548
▁wendy	-10.3548
▁error	-10.3548
▁humour	-10.3549
▁soap	-10.3549
▁rescue	-10.3549
▁hatred	-10.3549
▁fitted	-10.355
▁housekeeper	-10.3552
▁tumbl	-10.3554
▁project	-10.3554
▁pursuit	-10.3554
▁swell	-10.3554
▁worry	-10.3556
▁collection	-10.3557
▁cock	-10.3558
▁intimate	-10.3558
▁trembled	-10.3573
▁occasionally	-10.3573
▁connected	-10.3576
▁humanity	-10.3578
▁understanding	-10.3581
mmy	-10.3581
▁fatal	-10.3583
▁coal	-10.3583
▁chase	-10.3584
▁driver	-10.3585
▁smok	-10.3587
▁deny	-10.3588
▁hopeless	-10.3588
▁penn	-10.3591
▁vanished	-10.3593
▁mistaken	-10.3598
▁piti	-10.3605
▁degrees	-10.3611
▁needs	-10.3621
▁hiding	-10.3634
▁product	-10.3661
▁approv	-10.368
▁proceeding	-10.3683
▁bri	-10.3683
▁purse	-10.3696
▁encounter	-10.3696
▁union	-10.3697
▁climb	-10.3697
za	-10.3709
▁tru	-10.3722
▁boots	-10.3723
▁cy	-10.3725
▁accord	-10.3735
▁sub	-10.3743
▁burned	-10.3746
▁seeming	-10.3747
▁arrive	-10.3791
▁madam	-10.3797
▁appears	-10.3801
▁separate	-10.3803
▁super	-10.3823
more	-10.3823
▁channel	-10.3826
▁creek	-10.3826
▁endeavour	-10.3826
▁glacier	-10.3826
▁leather	-10.3826
▁muttered	-10.3826
▁olenin	-10.3826
▁pencroft	-10.3826
▁repair	-10.3826
▁university	-10.3826
▁yonder	-10.3826
▁current	-10.3826
▁doctrine	-10.3826
▁sparkl	-10.3826
▁beaver	-10.3826
▁clasp	-10.3827
▁infant	-10.3827
▁intelligent	-10.3827
▁agony	-10.3827
▁irish	-10.3828
▁sex	-10.3829
▁civilization	-10.3829
▁rude	-10.3829
▁punishment	-10.3829
▁dragg	-10.383
▁grain	-10.3838
▁continu	-10.3841
▁rue	-10.3843
▁attain	-10.3845
▁bind	-10.3849
▁robe	-10.3849
▁continually	-10.3851
▁ends	-10.3856
▁professional	-10.3857
oon	-10.3862
▁experiences	-10.3864
▁spur	-10.3876
▁dressing	-10.3877
▁thanks	-10.3879
▁reduc	-10.3883
▁departed	-10.3898
▁earlie	-10.3902
▁lap	-10.3906
▁tie	-10.3917
ang	-10.3922
▁warning	-10.3923
▁fishe	-10.3935
▁writer	-10.3947
▁rouse	-10.3951
▁murmured	-10.3953
▁causes	-10.3959
▁oil	-10.3962
▁sharply	-10.3974
▁inform	-10.398
▁murmur	-10.3983
▁shortly	-10.3985
▁warriors	-10.399
▁belle	-10.3998
▁roc	-10.4002
scar	-10.4006
▁chi	-10.4015
▁pearl	-10.4031
▁bid	-10.4042
uch	-10.4044
ose	-10.4049
lac	-10.405
▁ski	-10.4069
▁views	-10.4077
▁jealous	-10.4078
▁whil	-10.4081
▁assure	-10.4083
▁hind	-10.4093
▁fac	-10.411
▁oppress	-10.4112
▁aloud	-10.4112
▁canadian	-10.4112
▁creep	-10.4112
▁cunning	-10.4112
▁domestic	-10.4112
▁indignation	-10.4112
▁overwhelm	-10.4112
▁prudence	-10.4112
▁quarles	-10.4112
▁railroad	-10.4112
▁saturday	-10.4112
▁slender	-10.4112
▁telegraph	-10.4112
▁utmost	-10.4112
▁violence	-10.4112
▁herbert	-10.4112
▁supply	-10.4112
▁calculat	-10.4112
▁whirl	-10.4112
▁oath	-10.4112
▁dusk	-10.4112
▁pony	-10.4112
▁cropper	-10.4112
▁timid	-10.4112
▁glorious	-10.4113
▁furious	-10.4114
▁bullet	-10.4116
▁ridge	-10.4116
▁conway	-10.4116
▁stroll	-10.4118
▁perpetual	-10.4118
▁enjoyment	-10.412
▁rollin	-10.4123
▁difficulties	-10.4124
▁patch	-10.4125
▁joyce	-10.4126
▁learning	-10.4129
▁argu	-10.4129
▁circumstance	-10.4132
▁torn	-10.4135
▁precisely	-10.4136
▁humble	-10.4137
▁restored	-10.4137
▁manage	-10.4139
▁freely	-10.4141
▁lightly	-10.4153
▁tri	-10.4163
▁gates	-10.4171
▁flushed	-10.419
▁factor	-10.419
▁ages	-10.42
time	-10.4206
▁obeyed	-10.4216
▁rag	-10.4218
▁remove	-10.4228
▁anti	-10.4237
▁andrew	-10.4245
▁climbed	-10.4247
▁intentions	-10.4259
▁collect	-10.426
▁hid	-10.426
▁habits	-10.4261
▁gravely	-10.4272
▁extend	-10.4277
▁tracks	-10.4289
▁curl	-10.4292
well	-10.4302
▁balance	-10.4309
▁groups	-10.431
▁vessels	-10.4316
▁beam	-10.4319
▁troubled	-10.4324
▁steam	-10.4327
▁locked	-10.4331
ja	-10.4335
▁reliev	-10.4341
port	-10.4341
▁u	-10.4349
▁tend	-10.435
▁quarters	-10.4365
lf	-10.4378
▁manifest	-10.4381
▁recognize	-10.4386
▁pearls	-10.4391
▁park	-10.4398
▁declare	-10.4399
▁strip	-10.44
▁author	-10.4401
▁interfere	-10.4405
▁coffee	-10.4406
▁comprehend	-10.4406
▁disguise	-10.4406
▁disposition	-10.4406
▁elzevir	-10.4406
▁enterprise	-10.4406
▁external	-10.4406
▁holiday	-10.4406
▁ignorant	-10.4406
▁interview	-10.4406
▁oliver	-10.4406
▁opposition	-10.4406
▁ronicky	-10.4406
▁darling	-10.4406
▁thrill	-10.4406
▁shift	-10.4406
▁shiver	-10.4406
▁inhabitants	-10.4406
▁multi	-10.4406
▁recognise	-10.4406
▁boast	-10.4406
▁ornament	-10.4406
▁steal	-10.4406
▁boston	-10.4406
▁capacity	-10.4407
▁hint	-10.4407
▁swing	-10.4407
▁electric	-10.4407
▁wheat	-10.4408
▁scale	-10.4408
▁chap	-10.4408
▁dislike	-10.4408
▁morland	-10.4409
▁leif	-10.441
▁metal	-10.441
▁flatter	-10.441
▁stamp	-10.441
▁coach	-10.441
▁carol	-10.4412
▁andrea	-10.4413
▁paul	-10.4413
▁tribes	-10.4414
▁guide	-10.4415
▁losing	-10.4417
▁motionless	-10.4418
▁anyhow	-10.4422
▁center	-10.4433
▁mag	-10.4454
▁published	-10.4455
▁ventur	-10.4459
▁corpse	-10.446
▁jar	-10.4463
▁wept	-10.4467
▁exc	-10.4474
▁permitt	-10.4477
▁observ	-10.4481
▁dismiss	-10.4488
▁advanc	-10.4495
oli	-10.4495
old	-10.4497
▁commanded	-10.4504
▁instructions	-10.4512
▁developed	-10.4521
▁shadows	-10.4526
▁reflected	-10.4533
▁peasants	-10.454
▁burning	-10.4559
▁reflect	-10.456
▁needle	-10.4563
▁succeed	-10.4581
▁load	-10.4583
▁beth	-10.4598
▁spi	-10.46
hin	-10.4638
▁guards	-10.4643
▁positive	-10.4661
ki	-10.4664
mber	-10.4667
▁happens	-10.4673
▁cave	-10.4681
ament	-10.4684
▁acknowledge	-10.4685
erson	-10.4686
▁receiv	-10.4689
▁cultivat	-10.4704
▁punish	-10.4708
▁intent	-10.4708
sburg	-10.4709
▁leisure	-10.4709
▁bernard	-10.4709
▁decision	-10.4709
▁independent	-10.4709
▁province	-10.4709
▁sleeve	-10.4709
▁thumb	-10.4709
▁tremendous	-10.4709
▁unpleasant	-10.4709
▁banner	-10.4709
▁restrain	-10.4709
▁haunt	-10.4709
▁wrapped	-10.4709
▁sneer	-10.4709
▁mild	-10.4709
▁julia	-10.471
▁contact	-10.471
▁blot	-10.471
▁crep	-10.4711
▁throng	-10.4711
▁conducted	-10.4712
▁meantime	-10.4712
▁barrel	-10.4712
▁theatre	-10.4713
▁isabella	-10.4714
▁establishment	-10.4716
▁market	-10.4717
▁tur	-10.4718
▁peril	-10.4718
▁china	-10.4719
▁perish	-10.472
▁carling	-10.4721
▁abruptly	-10.4722
▁divided	-10.4724
▁gre	-10.4726
▁badly	-10.4726
▁doorway	-10.4729
▁prize	-10.4734
cha	-10.4744
▁neighbor	-10.4745
▁breathing	-10.475
▁swords	-10.4772
▁hatch	-10.4776
▁acquired	-10.4779
▁cart	-10.48
▁rul	-10.4804
▁dan	-10.4811
▁prepar	-10.4825
▁stroke	-10.4829
▁va	-10.4837
▁awe	-10.4849
▁avo	-10.4853
day	-10.4858
▁commons	-10.4872
▁canoe	-10.488
▁attempted	-10.4889
▁purposes	-10.489
▁colour	-10.4892
▁jump	-10.4895
▁career	-10.4897
▁details	-10.4923
▁pole	-10.4947
▁permit	-10.4947
▁numbers	-10.495
▁ros	-10.4959
tive	-10.4973
▁practical	-10.4975
▁profession	-10.4994
▁thor	-10.4994
▁endure	-10.5
▁elect	-10.5007
can	-10.5008
▁convict	-10.5012
▁refresh	-10.5018
▁correspond	-10.5021
▁crawl	-10.5021
▁bewilder	-10.5022
▁condemn	-10.5022
▁contemplat	-10.5022
▁disgust	-10.5022
▁activity	-10.5022
▁breeze	-10.5022
▁fatigue	-10.5022
▁genuine	-10.5022
▁merrick	-10.5022
▁prairie	-10.5022
▁ralph	-10.5022
▁reform	-10.5022
▁spectacle	-10.5022
▁tumult	-10.5022
▁uniform	-10.5022
▁collar	-10.5022
▁feeble	-10.5022
▁visited	-10.5022
▁thomas	-10.5022
▁bennet	-10.5022
▁justinian	-10.5022
▁oyster	-10.5022
▁christmas	-10.5022
▁bingley	-10.5022
▁convey	-10.5022
▁scheme	-10.5022
▁gown	-10.5022
▁beryl	-10.5022
▁pillow	-10.5022
▁pig	-10.5022
▁discourse	-10.5022
▁barrier	-10.5022
▁duties	-10.5022
▁student	-10.5022
▁vigorous	-10.5023
▁characteristic	-10.5023
▁arrow	-10.5024
▁kara	-10.5024
▁staff	-10.5024
▁shaw	-10.5026
▁monte	-10.5026
▁rope	-10.5028
▁melt	-10.503
▁readily	-10.503
▁moan	-10.5037
▁angle	-10.5039
▁cries	-10.5041
▁supported	-10.5045
▁emerg	-10.5046
▁respectable	-10.5047
▁assumed	-10.5048
▁upward	-10.506
▁guest	-10.5079
▁endless	-10.508
▁chill	-10.5082
▁rattl	-10.5086
▁reporter	-10.5086
▁natured	-10.5093
▁outline	-10.5094
istic	-10.5106
▁sincere	-10.512
▁lesson	-10.5121
▁repeat	-10.5123
▁garments	-10.5125
▁settle	-10.513
▁experienced	-10.5154
▁drawer	-10.5166
▁concealed	-10.5182
▁represented	-10.5186
▁fix	-10.5214
▁intend	-10.5216
▁rum	-10.5242
▁toil	-10.5243
▁seeking	-10.5251
▁hence	-10.5268
▁occasions	-10.5271
▁romans	-10.5279
▁grin	-10.5297
▁fad	-10.5298
▁admire	-10.5308
▁destin	-10.531
ration	-10.5314
▁ge	-10.532
▁mal	-10.5322
▁chose	-10.5324
▁mid	-10.5324
▁govern	-10.5332
ram	-10.534
▁indulg	-10.5343
▁lynde	-10.5344
▁ascend	-10.5344
▁attribut	-10.5344
▁congress	-10.5344
▁envelop	-10.5344
▁eternal	-10.5344
▁frederick	-10.5344
▁impatience	-10.5344
▁indifference	-10.5344
▁industry	-10.5344
▁institution	-10.5344
▁pistol	-10.5344
▁smart	-10.5344
▁thither	-10.5344
▁vengeance	-10.5344
▁improvement	-10.5344
▁buffalo	-10.5344
▁gossip	-10.5344
▁sledge	-10.5344
▁aroused	-10.5344
▁belief	-10.5344
▁troutina	-10.5344
▁orange	-10.5344
▁monkey	-10.5345
▁pierc	-10.5345
▁groom	-10.5345
▁withdrew	-10.5345
▁offend	-10.5345
▁oars	-10.5346
▁retain	-10.5346
▁moonlight	-10.5346
▁barbara	-10.5347
▁cro	-10.5348
▁duck	-10.5349
series	-10.5349
▁attendant	-10.5349
▁creation	-10.5349
▁fiddler	-10.5349
▁curate	-10.5352
▁growth	-10.5356
ison	-10.5356
▁cents	-10.5356
▁swu	-10.536
▁proposal	-10.536
▁embrace	-10.5362
▁articles	-10.5362
▁partial	-10.5362
▁accused	-10.5363
▁succession	-10.5363
▁frost	-10.5364
▁bab	-10.5365
▁eighth	-10.537
▁wire	-10.5373
bel	-10.5376
▁ox	-10.5377
▁clock	-10.5378
▁phi	-10.5385
▁wan	-10.5385
▁divers	-10.5388
▁helpless	-10.5389
▁lace	-10.5391
▁shells	-10.5392
▁practically	-10.5394
▁jenks	-10.5395
▁misfortune	-10.54
▁contented	-10.5403
▁fastened	-10.5411
▁dwelling	-10.5415
iness	-10.5422
▁ninet	-10.5422
▁related	-10.5425
tern	-10.5429
▁closer	-10.5463
▁perch	-10.5476
▁mars	-10.5485
▁dine	-10.5491
▁hare	-10.5506
▁mayor	-10.5527
▁murderer	-10.5537
▁lust	-10.5544
▁develop	-10.5545
▁arrest	-10.5547
▁acted	-10.5552
▁cape	-10.5557
▁fog	-10.5564
▁fin	-10.5571
▁considering	-10.5575
▁boil	-10.5595
▁dam	-10.5609
▁rat	-10.5621
▁nu	-10.5623
▁guests	-10.563
▁rolling	-10.5631
lan	-10.5633
ock	-10.5644
▁arrange	-10.5646
llow	-10.565
▁bud	-10.5668
▁confident	-10.5677
▁abraham	-10.5677
▁admiral	-10.5677
▁april	-10.5677
▁barbicane	-10.5677
▁campaign	-10.5677
▁consequently	-10.5677
▁culture	-10.5677
▁elbow	-10.5677
▁grammont	-10.5677
▁gwynplaine	-10.5677
▁happily	-10.5677
▁hoopdriver	-10.5677
▁independence	-10.5677
▁leopold	-10.5677
▁mischief	-10.5677
▁montgomery	-10.5677
▁psychic	-10.5677
▁quality	-10.5677
▁rabbit	-10.5677
▁refuge	-10.5677
▁senator	-10.5677
▁substance	-10.5677
▁uncertain	-10.5677
▁border	-10.5677
▁carpet	-10.5677
▁frown	-10.5677
▁solitar	-10.5677
▁scent	-10.5678
▁bosom	-10.5678
▁exceed	-10.5678
▁naked	-10.5678
▁annoy	-10.5678
▁tiger	-10.5678
▁declin	-10.5678
▁neighborhood	-10.5678
▁italian	-10.5678
▁fanny	-10.5678
▁greggory	-10.5679
▁silly	-10.5679
▁iceland	-10.5681
▁necessarily	-10.5682
▁cabinet	-10.5682
▁monk	-10.5684
▁hideous	-10.5684
▁padd	-10.5684
▁contest	-10.5684
▁cove	-10.5687
▁secretary	-10.5688
▁ze	-10.5689
▁scared	-10.5692
adi	-10.5692
▁prepare	-10.5692
aid	-10.5693
▁crest	-10.5699
▁moss	-10.5711
▁persuaded	-10.5729
▁pound	-10.5748
▁bi	-10.5752
▁shy	-10.5766
▁beach	-10.5784
ries	-10.5791
▁ability	-10.5793
▁lip	-10.5794
▁lawn	-10.5819
▁waved	-10.583
▁gal	-10.5846
▁covering	-10.5868
▁chuckl	-10.5883
▁liver	-10.589
▁employ	-10.5891
▁finish	-10.5897
▁dreaming	-10.5901
aving	-10.591
▁rub	-10.5913
▁commission	-10.5944
▁pet	-10.5948
▁inner	-10.5959
▁strangers	-10.5962
▁prompt	-10.5974
▁apparent	-10.5976
▁secur	-10.5976
▁wa	-10.5983
▁reserve	-10.5986
▁tap	-10.5991
▁mix	-10.6002
▁slip	-10.6002
▁luxuri	-10.6022
▁autumn	-10.6022
▁circular	-10.6022
▁excellenc	-10.6022
▁furniture	-10.6022
▁graduate	-10.6022
▁hoarse	-10.6022
▁indifferent	-10.6022
▁joseph	-10.6022
▁juliet	-10.6022
▁overhead	-10.6022
▁possibility	-10.6022
▁prevail	-10.6022
▁application	-10.6022
▁occupation	-10.6022
▁thread	-10.6022
▁farewell	-10.6022
▁adapt	-10.6022
▁falk	-10.6022
▁solitude	-10.6022
▁coarse	-10.6022
▁lark	-10.6022
▁kick	-10.6022
▁solicit	-10.6022
▁mankind	-10.6022
▁steel	-10.6022
▁harsh	-10.6022
▁contriv	-10.6023
▁motor	-10.6023
▁centr	-10.6023
▁authorities	-10.6023
▁stuck	-10.6024
▁favorite	-10.6024
▁batter	-10.6024
▁talent	-10.6024
▁abbe	-10.6025
▁fleece	-10.6025
▁composition	-10.6026
▁agitation	-10.6026
▁bible	-10.6027
▁damon	-10.6028
▁occur	-10.6031
▁partner	-10.6033
▁apt	-10.6033
▁recollection	-10.6036
▁assent	-10.6037
▁brig	-10.6038
▁responded	-10.6038
▁beasts	-10.6042
▁confession	-10.6045
▁rubb	-10.605
▁elde	-10.6051
▁captured	-10.6052
▁tam	-10.6054
▁heels	-10.6055
▁hook	-10.6056
▁renewed	-10.6057
▁stable	-10.6061
▁polly	-10.6067
▁cub	-10.6068
▁reasonable	-10.6073
▁bigge	-10.6081
▁gathering	-10.6088
▁previously	-10.6091
ption	-10.6098
▁parties	-10.6105
▁ray	-10.6105
▁peaceful	-10.611
▁earn	-10.6134
▁hale	-10.6143
▁ere	-10.6143
▁reli	-10.6145
▁loudly	-10.6147
▁stronger	-10.6164
▁historians	-10.6167
▁guessed	-10.6169
▁calmly	-10.6172
▁remaining	-10.6173
ney	-10.619
▁hunter	-10.6198
▁flowing	-10.6211
▁purchase	-10.6215
▁nuts	-10.6222
ball	-10.6226
▁agents	-10.6227
▁heir	-10.6246
▁wave	-10.6246
▁obey	-10.6252
▁qui	-10.6257
carlet	-10.6259
▁cakes	-10.6288
▁alarmed	-10.6298
▁pit	-10.6303
▁offering	-10.631
▁weigh	-10.631
▁misfortunes	-10.6318
▁shine	-10.6322
▁obvious	-10.6331
▁sch	-10.6344
▁execution	-10.6348
▁cu	-10.6354
▁decide	-10.6354
▁recollect	-10.6365
fold	-10.6366
▁swim	-10.6367
▁emb	-10.6372
▁pu	-10.6377
▁results	-10.6377
▁scrap	-10.6379
▁construct	-10.6379
▁bohemia	-10.6379
▁california	-10.6379
▁chauvelin	-10.6379
▁esteem	-10.6379
▁frozen	-10.6379
▁genzaburo	-10.6379
▁globe	-10.6379
▁gnome	-10.6379
▁ignorance	-10.6379
▁january	-10.6379
▁julius	-10.6379
▁lantern	-10.6379
▁lecoq	-10.6379
▁margaret	-10.6379
▁michel	-10.6379
▁napoleon	-10.6379
▁phrase	-10.6379
▁scorn	-10.6379
▁stomach	-10.6379
▁torrent	-10.6379
▁tradition	-10.6379
▁whirlwind	-10.6379
▁wilmington	-10.6379
▁carlini	-10.6379
▁franz	-10.6379
▁monarch	-10.6379
▁occupy	-10.6379
▁stagger	-10.6379
▁sustain	-10.6379
▁british	-10.6379
▁memories	-10.6379
▁survey	-10.6379
▁esther	-10.638
▁awoke	-10.638
▁stopping	-10.638
▁sobb	-10.638
▁comparative	-10.638
▁ireland	-10.638
▁cloak	-10.638
▁canvas	-10.638
▁glar	-10.638
▁favourite	-10.6381
▁poison	-10.6381
▁damage	-10.6382
▁mission	-10.6382
▁assistant	-10.6383
▁careless	-10.6384
▁peak	-10.6384
▁frightful	-10.6385
▁vine	-10.6391
▁travers	-10.6395
▁distinction	-10.6396
▁joyous	-10.6399
▁kan	-10.6408
▁sixth	-10.6411
▁admired	-10.642
▁puzzled	-10.642
▁glasses	-10.642
▁outward	-10.6425
▁team	-10.6428
▁damn	-10.6431
▁signal	-10.6435
▁beggar	-10.6437
▁slid	-10.6445
▁dining	-10.6451
▁enable	-10.6462
▁bench	-10.6465
▁clay	-10.6467
▁dollar	-10.6475
line	-10.6476
az	-10.6484
▁bestow	-10.6485
▁cake	-10.6487
▁holes	-10.6499
▁herod	-10.6502
▁lucky	-10.6505
▁rubbed	-10.6513
▁model	-10.6526
▁coloured	-10.653
▁speedi	-10.6532
▁loaded	-10.6535
▁clothing	-10.6554
▁sore	-10.6562
▁traveller	-10.6574
gue	-10.6574
▁formal	-10.6578
▁principles	-10.6586
▁plann	-10.6587
▁virtues	-10.6597
▁joyful	-10.6601
▁respectful	-10.6613
▁wav	-10.6616
▁disturb	-10.6619
▁expos	-10.662
▁dispos	-10.6622
▁prayers	-10.6652
▁greet	-10.6659
hold	-10.6691
▁belonging	-10.6723
▁trifle	-10.6724
▁snap	-10.6726
▁combin	-10.6735
▁conquer	-10.6738
field	-10.6741
▁thro	-10.6748
▁flour	-10.675
▁amazement	-10.675
▁blossom	-10.675
▁caterpillar	-10.675
▁cigar	-10.675
▁inclination	-10.675
▁launcelot	-10.675
▁league	-10.675
▁mariposa	-10.675
▁portrait	-10.675
▁syndic	-10.675
▁taylor	-10.675
▁uneasy	-10.675
▁wilson	-10.675
▁contrast	-10.675
▁blew	-10.675
▁bundle	-10.675
▁coroner	-10.675
▁greek	-10.675
▁thorpe	-10.675
▁orphan	-10.675
▁deaf	-10.675
▁glove	-10.675
▁muscle	-10.675
▁israel	-10.675
▁surviv	-10.675
▁dried	-10.675
▁exceedingly	-10.675
▁reference	-10.675
▁repose	-10.675
▁tendenc	-10.6751
▁folly	-10.6751
▁shov	-10.6752
▁population	-10.6752
▁ankle	-10.6753
▁jacket	-10.6753
▁prime	-10.6754
▁sunlight	-10.6754
▁security	-10.6755
▁tune	-10.6755
▁stain	-10.6764
▁pan	-10.677
▁relate	-10.677
▁hobb	-10.6772
▁wip	-10.6773
▁martin	-10.6773
▁cris	-10.6782
▁rejoined	-10.6787
▁fist	-10.6795
▁louder	-10.6801
▁boxes	-10.6802
▁deceived	-10.6802
▁jimmy	-10.6807
▁mast	-10.6809
▁button	-10.6817
▁exists	-10.6828
▁chok	-10.6828
▁weeping	-10.6832
▁adopted	-10.6836
▁onward	-10.6863
▁properly	-10.6884
ka	-10.6896
▁youngest	-10.6904
▁pod	-10.694
arily	-10.6947
▁starv	-10.6955
▁jewels	-10.697
▁legal	-10.6973
▁wag	-10.6996
▁consist	-10.7003
▁improv	-10.7005
ember	-10.704
▁barr	-10.7048
▁alike	-10.7055
▁compar	-10.7074
▁cure	-10.7077
▁catching	-10.7078
▁fri	-10.7081
▁whip	-10.7084
▁sauce	-10.7086
gging	-10.7086
▁assert	-10.7089
▁searching	-10.7092
▁inquire	-10.7099
▁reported	-10.7099
▁robber	-10.71
▁gro	-10.7113
▁disgrace	-10.7118
▁fascinat	-10.7122
▁interpret	-10.7127
▁sufferings	-10.7129
▁complex	-10.7129
▁resent	-10.7132
▁persist	-10.7133
▁horizon	-10.7134
mposed	-10.7134
▁intellect	-10.7134
▁ascertain	-10.7134
▁bargain	-10.7134
▁caution	-10.7134
▁centuries	-10.7134
▁confound	-10.7134
▁congratulat	-10.7134
▁explor	-10.7134
▁exquisite	-10.7134
▁fountain	-10.7134
▁function	-10.7134
▁gracious	-10.7134
▁junior	-10.7134
▁monica	-10.7134
▁nonsense	-10.7134
▁obstacle	-10.7134
▁remote	-10.7134
▁specimen	-10.7134
▁swear	-10.7134
▁turkey	-10.7134
▁vehicle	-10.7134
▁wisdom	-10.7134
▁cristel	-10.7134
▁interior	-10.7134
▁probable	-10.7134
▁remedy	-10.7134
▁babylon	-10.7134
▁revenge	-10.7134
▁thirst	-10.7134
▁charity	-10.7134
▁decay	-10.7134
▁avail	-10.7135
▁repuls	-10.7135
▁absent	-10.7135
▁pulse	-10.7135
▁presum	-10.7135
▁musketeer	-10.7135
▁grape	-10.7135
▁crane	-10.7135
bury	-10.7135
▁appropriate	-10.7135
▁sunset	-10.7135
▁sofa	-10.7135
▁neighbourhood	-10.7135
▁bunch	-10.7136
▁drank	-10.7136
▁striv	-10.7136
▁amusement	-10.7136
▁cannon	-10.7136
▁closing	-10.7136
▁meek	-10.7137
▁polish	-10.7137
▁entertainment	-10.7137
▁declaration	-10.7137
▁performance	-10.7138
▁convention	-10.7138
▁valet	-10.7138
▁emily	-10.7139
▁uncomfortable	-10.714
▁eva	-10.714
▁stir	-10.7143
▁protection	-10.7143
▁european	-10.7143
▁claw	-10.7144
▁robin	-10.7146
▁gil	-10.7147
▁strongly	-10.715
▁venus	-10.7155
▁harmony	-10.7156
▁weakness	-10.7157
▁heartily	-10.7164
oes	-10.7165
▁cling	-10.717
▁plants	-10.7175
▁masses	-10.7178
▁hire	-10.7179
▁persuade	-10.7185
▁carelessly	-10.7187
▁issued	-10.7188
▁positively	-10.7197
▁cord	-10.72
▁emotions	-10.7202
▁lively	-10.7202
ads	-10.7203
▁indicated	-10.7215
▁kin	-10.7217
▁cab	-10.7245
▁root	-10.7258
▁citizen	-10.7259
▁detail	-10.726
▁curiously	-10.7264
▁ka	-10.7281
▁formerly	-10.7285
▁borne	-10.7291
▁pupils	-10.7308
ado	-10.7316
▁gall	-10.7319
▁veins	-10.733
▁prayer	-10.7334
▁performed	-10.7355
▁operat	-10.736
▁existed	-10.736
▁frogs	-10.7366
▁breathe	-10.7375
▁granted	-10.7376
here	-10.7376
▁crop	-10.7376
▁cop	-10.7391
▁meadows	-10.7404
▁display	-10.7404
shed	-10.7415
▁crumb	-10.7417
▁pushing	-10.7438
▁bat	-10.7456
▁preach	-10.7465
▁judg	-10.7467
▁meter	-10.7469
▁pun	-10.7487
▁inward	-10.7495
▁tremble	-10.7498
▁cease	-10.7499
▁rider	-10.7499
▁virgin	-10.7508
▁undertake	-10.7513
▁embrac	-10.7513
▁russia	-10.7513
▁imitat	-10.7529
▁educat	-10.7529
▁cell	-10.7532
▁inhabit	-10.7534
▁bedroom	-10.7534
▁biscuit	-10.7534
▁chicago	-10.7534
▁chokichi	-10.7534
▁conflict	-10.7534
▁exclusion	-10.7534
▁executive	-10.7534
▁grandmother	-10.7534
▁headquarters	-10.7534
▁inferior	-10.7534
▁invisible	-10.7534
▁mutual	-10.7534
▁opponent	-10.7534
▁permanent	-10.7534
▁sensitive	-10.7534
▁unwilling	-10.7534
▁depriv	-10.7534
▁devour	-10.7534
▁plead	-10.7534
▁proposition	-10.7534
▁scrambl	-10.7534
▁rynch	-10.7534
▁scout	-10.7534
▁cherish	-10.7534
▁november	-10.7534
▁pilot	-10.7534
▁torture	-10.7534
▁jasper	-10.7534
▁spear	-10.7534
▁sugar	-10.7534
▁stray	-10.7535
▁rifle	-10.7535
▁studied	-10.7535
▁normal	-10.7535
▁temporary	-10.7535
▁complicat	-10.7535
▁lunch	-10.7536
▁quiver	-10.7536
▁extra	-10.7536
▁awakened	-10.7538
lia	-10.7538
▁pye	-10.7538
▁tax	-10.7539
▁apply	-10.7539
▁section	-10.7541
▁background	-10.7541
verage	-10.7542
▁calf	-10.7544
▁passionate	-10.7545
▁pink	-10.7546
▁zeal	-10.7547
▁englishman	-10.7553
▁map	-10.7558
▁parker	-10.756
▁sadness	-10.7561
▁italy	-10.7562
▁spin	-10.7563
▁coin	-10.7571
▁pol	-10.7582
▁permissi	-10.7589
▁jerk	-10.759
▁jest	-10.7599
▁drowned	-10.7612
▁faster	-10.7621
▁fury	-10.7623
win	-10.7642
▁instruments	-10.7651
▁dig	-10.767
▁comrade	-10.7673
▁depth	-10.7675
▁exposed	-10.7676
ache	-10.7682
▁glowing	-10.7685
▁sadly	-10.7714
▁howl	-10.7733
cular	-10.7744
meer	-10.776
▁pok	-10.7775
▁staying	-10.7789
▁riches	-10.7815
izz	-10.785
fore	-10.7855
▁dat	-10.7859
▁dwell	-10.7862
▁banker	-10.7863
▁weep	-10.787
▁hasten	-10.7877
▁critic	-10.7887
▁lessons	-10.7892
urn	-10.7903
▁engine	-10.7912
▁provide	-10.7915
▁capture	-10.7915
▁hesitate	-10.7915
▁realize	-10.7915
▁restore	-10.7927
▁arise	-10.7932
▁seize	-10.7934
foot	-10.7943
▁eu	-10.7943
▁embarrass	-10.7948
▁differ	-10.7948
▁simon	-10.795
▁deposit	-10.7951
▁distract	-10.7951
▁reject	-10.7951
▁abundance	-10.7951
▁appreciate	-10.7951
▁attentive	-10.7951
▁avenue	-10.7951
▁awkward	-10.7951
▁brenda	-10.7951
▁cetera	-10.7951
▁clutch	-10.7951
▁convenient	-10.7951
▁corridor	-10.7951
▁disorder	-10.7951
▁elegant	-10.7951
▁elsewhere	-10.7951
▁extremit	-10.7951
▁jerusalem	-10.7951
▁miracle	-10.7951
▁monstrous	-10.7951
▁obedience	-10.7951
▁obscure	-10.7951
▁phenomena	-10.7951
▁resource	-10.7951
▁revolt	-10.7951
▁scientific	-10.7951
▁shield	-10.7951
▁simpson	-10.7951
▁universe	-10.7951
▁milton	-10.7951
▁serene	-10.7951
▁tobacco	-10.7951
▁stephen	-10.7951
▁strait	-10.7951
▁stump	-10.7951
▁release	-10.7951
▁cotton	-10.7951
▁recess	-10.7951
▁chinese	-10.7951
▁promote	-10.7951
▁courteous	-10.7951
▁chimney	-10.7951
▁derive	-10.7951
▁stirred	-10.7951
▁residence	-10.7952
▁maxim	-10.7952
▁granit	-10.7952
▁dismal	-10.7952
▁apprehension	-10.7952
▁balloon	-10.7953
dignified	-10.7953
▁doone	-10.7953
▁enthusiastic	-10.7953
▁ripe	-10.7953
▁cupid	-10.7954
▁enchant	-10.7954
▁cattle	-10.7954
▁embarrassment	-10.7954
▁foul	-10.7954
▁raven	-10.7957
▁exile	-10.7961
▁exertion	-10.7961
▁tide	-10.7964
▁greenland	-10.7965
▁selfish	-10.7965
▁heroic	-10.7966
▁eel	-10.7968
▁eagerness	-10.7968
▁involved	-10.7969
▁vice	-10.7969
▁majority	-10.7973
▁warmth	-10.7973
▁offence	-10.7976
▁dip	-10.7977
▁sack	-10.7978
▁daylight	-10.7979
▁retorted	-10.7982
▁seventh	-10.7988
▁yell	-10.7989
▁sway	-10.799
▁shaken	-10.7993
▁curve	-10.8001
▁tre	-10.8003
▁exhibited	-10.8004
▁brag	-10.8007
▁illness	-10.8015
▁deeds	-10.8022
▁fil	-10.8027
▁restless	-10.803
▁foundation	-10.8033
▁strangely	-10.8039
▁opposed	-10.8043
▁earnestly	-10.805
▁ard	-10.8053
mple	-10.8065
▁acknowledged	-10.8066
▁keeper	-10.8066
▁crushed	-10.8072
▁halted	-10.8077
▁altered	-10.8077
▁willingly	-10.8081
▁displayed	-10.8088
▁thine	-10.8097
▁teaching	-10.8101
▁boot	-10.8112
▁seriously	-10.8147
▁decidedly	-10.8157
▁drug	-10.8163
▁wo	-10.8165
▁weapons	-10.8201
▁suppos	-10.8221
▁quit	-10.8238
▁entertain	-10.8253
▁disappear	-10.8256
▁wretch	-10.8257
▁halt	-10.8258
▁ape	-10.8262
▁alter	-10.8264
eci	-10.8267
▁associate	-10.8275
rant	-10.8293
▁submit	-10.8295
▁invent	-10.8334
▁easi	-10.8339
▁conceive	-10.8349
▁assume	-10.835
upon	-10.8363
▁suppli	-10.8369
▁serv	-10.8377
town	-10.8378
▁instruct	-10.838
▁quest	-10.838
▁regi	-10.8381
▁vol	-10.8383
▁blank	-10.8384
▁deliberat	-10.8386
▁degrad	-10.8386
▁achievement	-10.8386
▁angrily	-10.8386
▁appetite	-10.8386
▁borrow	-10.8386
▁buccaneer	-10.8386
▁cigarette	-10.8386
▁commenced	-10.8386
▁delaware	-10.8386
▁discern	-10.8386
▁immortal	-10.8386
▁josiana	-10.8386
▁lodging	-10.8386
▁muskrat	-10.8386
▁redcoat	-10.8386
▁review	-10.8386
▁robarts	-10.8386
▁significant	-10.8386
▁sublime	-10.8386
▁subsequent	-10.8386
▁violet	-10.8386
▁yourselves	-10.8386
▁africa	-10.8386
▁indignant	-10.8386
▁whale	-10.8386
▁hopkins	-10.8386
▁rawdon	-10.8386
▁guinea	-10.8386
▁porch	-10.8386
▁subdu	-10.8386
▁dismay	-10.8386
▁harvest	-10.8386
▁parcel	-10.8386
▁chron	-10.8386
▁funeral	-10.8386
▁syria	-10.8386
▁boughs	-10.8386
▁inquiry	-10.8386
▁spell	-10.8386
▁pattern	-10.8386
▁pluck	-10.8386
▁crystal	-10.8386
▁prick	-10.8387
▁daint	-10.8387
▁criticism	-10.8387
▁daring	-10.8388
▁disturbance	-10.8388
▁flourish	-10.8389
▁ladder	-10.8389
▁chicken	-10.839
▁triumphant	-10.839
▁butcher	-10.839
▁romantic	-10.839
▁feverish	-10.839
▁panic	-10.8391
▁stro	-10.8394
▁satisfactory	-10.8394
▁belt	-10.8394
▁operator	-10.8395
▁machinery	-10.8396
▁thicket	-10.8398
rence	-10.8398
▁invention	-10.8399
▁airship	-10.8399
▁interruption	-10.84
▁harness	-10.8401
▁identi	-10.8402
▁temptation	-10.8407
▁cutting	-10.8407
▁fancies	-10.8407
▁humm	-10.841
cket	-10.8411
▁amused	-10.8413
▁mechanical	-10.8416
▁abuse	-10.8416
▁pinch	-10.842
ixture	-10.8421
▁beaten	-10.8422
▁chatt	-10.8423
itch	-10.8427
▁stated	-10.8435
▁carter	-10.8438
▁animat	-10.8442
arian	-10.8443
▁promptly	-10.8448
▁dew	-10.8459
▁bite	-10.8462
▁darken	-10.8473
▁relieve	-10.8484
▁sale	-10.8496
▁luc	-10.8503
▁induce	-10.8506
▁healthy	-10.8507
▁advised	-10.8513
▁patiently	-10.8524
▁jaws	-10.8542
▁shaped	-10.8548
▁victor	-10.8552
yard	-10.8555
▁track	-10.8566
▁faintly	-10.8568
▁cod	-10.8575
▁writ	-10.8588
▁anxiously	-10.8615
▁raw	-10.8622
▁haz	-10.8622
▁bone	-10.8653
▁county	-10.8661
▁limited	-10.868
▁comrades	-10.8685
▁mac	-10.8695
▁whit	-10.8699
▁crush	-10.871
▁speaker	-10.8718
▁dropp	-10.8731
▁witnessed	-10.8745
▁communicate	-10.8751
▁planet	-10.8772
coming	-10.8782
▁believ	-10.8788
▁strict	-10.8792
▁stru	-10.8817
chester	-10.8819
▁agitat	-10.8835
▁defect	-10.884
▁gwendolen	-10.884
▁hesitating	-10.884
▁imperfect	-10.884
▁anguish	-10.884
▁artificial	-10.884
▁bibbs	-10.884
▁brood	-10.884
▁charlotte	-10.884
▁circus	-10.884
▁conniston	-10.884
▁dazzl	-10.884
▁discharg	-10.884
▁escort	-10.884
▁exaggerat	-10.884
▁manufacture	-10.884
▁philosophy	-10.884
▁photograph	-10.884
▁pleasing	-10.884
▁quixote	-10.884
▁response	-10.884
▁scratch	-10.884
▁sergeant	-10.884
▁sheriff	-10.884
▁shudder	-10.884
▁structure	-10.884
▁suffrage	-10.884
▁surrender	-10.884
▁swore	-10.884
▁villain	-10.884
▁adjo	-10.884
▁affirm	-10.884
▁device	-10.884
▁irritat	-10.884
▁raft	-10.884
▁sinister	-10.884
▁wreck	-10.884
▁hesitation	-10.884
▁pavement	-10.884
▁decent	-10.884
▁lazy	-10.884
▁impart	-10.8841
▁florence	-10.8841
▁hawk	-10.8841
▁interven	-10.8841
▁illusion	-10.8841
▁conspi	-10.8841
▁lungs	-10.8841
▁wolf	-10.8841
▁vital	-10.8841
▁winning	-10.8841
▁rigid	-10.8841
▁fame	-10.8841
▁johnny	-10.8842
▁subtle	-10.8842
▁wool	-10.8842
▁preferred	-10.8842
▁blanket	-10.8842
▁suspicious	-10.8843
▁constanc	-10.8843
▁hedge	-10.8843
shire	-10.8844
▁compassion	-10.8844
▁fier	-10.8844
▁hurl	-10.8845
▁resistance	-10.8845
▁bolt	-10.8846
▁desirable	-10.8846
▁jail	-10.8847
▁vow	-10.8849
▁durham	-10.885
▁champion	-10.8851
▁romance	-10.8851
▁mail	-10.8856
▁constitute	-10.8857
▁chant	-10.8858
▁combination	-10.8859
▁shave	-10.8861
▁mournful	-10.8862
▁deem	-10.8863
▁confined	-10.887
shaw	-10.8871
▁amiabl	-10.8872
▁downward	-10.8873
▁symptoms	-10.8874
itive	-10.888
▁worm	-10.888
▁reserved	-10.8889
▁indicate	-10.889
▁thoughtful	-10.8894
▁lowest	-10.8902
▁studio	-10.8909
▁deer	-10.891
▁fortunately	-10.8924
▁shad	-10.8927
▁passes	-10.8928
▁risen	-10.8933
▁unconsciously	-10.8935
▁struggled	-10.8942
▁dug	-10.8942
▁fulfill	-10.8942
▁danced	-10.8943
pie	-10.8945
▁bin	-10.8953
▁germany	-10.8954
▁hip	-10.8955
▁clad	-10.8961
▁violently	-10.8967
▁guided	-10.8981
▁consisted	-10.8997
ggy	-10.8999
▁porter	-10.9018
▁spectators	-10.9019
▁blessing	-10.9026
▁threatening	-10.903
▁frog	-10.9033
▁greed	-10.9037
▁weapon	-10.9038
▁warrior	-10.904
▁folk	-10.9044
▁agent	-10.9051
▁jewel	-10.9052
▁desir	-10.9053
▁din	-10.9056
▁completed	-10.9072
▁armor	-10.9078
▁ur	-10.9085
▁logic	-10.9088
ule	-10.9092
uck	-10.9109
▁dora	-10.9143
▁plac	-10.9149
dical	-10.9174
▁drum	-10.9187
▁flush	-10.9188
▁nat	-10.9211
▁bowl	-10.925
▁aged	-10.9262
▁whe	-10.9265
▁necessit	-10.9283
▁ram	-10.9285
▁meditat	-10.9295
▁contradict	-10.9297
▁profess	-10.9297
▁scr	-10.9302
water	-10.9314
▁excess	-10.9315
▁patriot	-10.9316
▁admiring	-10.9317
▁ambitious	-10.9317
▁anthony	-10.9317
▁bronze	-10.9317
▁casual	-10.9317
▁ceremony	-10.9317
▁contribute	-10.9317
▁cossack	-10.9317
▁craggs	-10.9317
▁disclos	-10.9317
▁dwelt	-10.9317
▁egypt	-10.9317
▁felix	-10.9317
▁flicker	-10.9317
▁journal	-10.9317
▁kwairyo	-10.9317
▁liberal	-10.9317
▁october	-10.9317
▁parlour	-10.9317
▁precaution	-10.9317
▁prejudice	-10.9317
▁proclaim	-10.9317
▁proprietor	-10.9317
▁responsible	-10.9317
▁rhythm	-10.9317
▁ridiculous	-10.9317
▁scholar	-10.9317
▁squeez	-10.9317
▁substitute	-10.9317
▁surpass	-10.9317
▁threshold	-10.9317
▁wharton	-10.9317
▁darcy	-10.9317
▁eagle	-10.9317
▁insect	-10.9317
▁nathan	-10.9317
▁petition	-10.9317
▁rotten	-10.9317
▁sexual	-10.9317
▁spilett	-10.9317
▁caesar	-10.9317
▁pencil	-10.9317
▁reaction	-10.9317
▁dictat	-10.9317
▁parlor	-10.9317
▁spain	-10.9317
▁gratify	-10.9317
▁populace	-10.9317
▁stove	-10.9317
▁amazed	-10.9317
▁wilderness	-10.9317
▁concert	-10.9317
▁decorat	-10.9317
▁latin	-10.9317
▁eminent	-10.9317
▁knot	-10.9317
▁anchor	-10.9317
▁monday	-10.9317
▁wig	-10.9318
▁tacit	-10.9318
▁lumber	-10.9318
▁gables	-10.9318
▁clo	-10.9318
▁tread	-10.9318
▁columbia	-10.9318
▁descent	-10.9318
▁detective	-10.9319
▁tolerabl	-10.9319
▁weari	-10.9319
▁bonds	-10.9319
▁disagreeable	-10.9319
▁detain	-10.9319
▁department	-10.932
▁roger	-10.932
▁breed	-10.932
▁organization	-10.9321
▁inquiri	-10.9322
▁torment	-10.9323
▁boom	-10.9324
wash	-10.9324
▁pressure	-10.9324
▁gross	-10.9326
▁rebel	-10.933
▁supplies	-10.933
▁elk	-10.9331
▁responsibility	-10.9331
ization	-10.9331
▁gasp	-10.9331
▁wink	-10.9331
▁invad	-10.9332
▁tut	-10.9332
▁lick	-10.9334
▁inches	-10.9335
▁election	-10.9337
▁inevitable	-10.934
▁tomb	-10.9342
▁breathless	-10.9344
▁tenderness	-10.9348
▁bother	-10.9349
▁skirt	-10.935
▁suspended	-10.9352
▁rex	-10.9356
▁mule	-10.9364
immer	-10.9365
liest	-10.9366
▁tenth	-10.937
▁perfection	-10.9372
▁gale	-10.9374
▁jealousy	-10.9374
▁nut	-10.9381
▁rever	-10.9407
▁harp	-10.9408
▁faithfully	-10.941
▁submitt	-10.9418
▁pillars	-10.9435
▁swiftly	-10.9435
comb	-10.9438
▁gasped	-10.9447
▁mob	-10.9453
▁repeating	-10.9458
▁cable	-10.9462
▁nerves	-10.9463
▁mono	-10.9467
▁arrested	-10.9507
rice	-10.9508
▁spy	-10.9518
▁collected	-10.9534
▁axe	-10.9544
▁encountered	-10.9547
▁pall	-10.9572
▁invite	-10.9584
▁drama	-10.9591
▁wander	-10.9597
▁behave	-10.9611
▁advise	-10.9644
▁oldest	-10.965
▁interrupt	-10.9671
mmed	-10.9682
▁depart	-10.9683
▁accomplish	-10.9685
▁doth	-10.9686
▁hum	-10.97
▁communicat	-10.9724
▁radian	-10.9768
▁pett	-10.9771
▁suffic	-10.9778
▁withdraw	-10.978
▁unit	-10.9782
▁retire	-10.9805
▁drag	-10.9805
▁perplex	-10.9812
piece	-10.9812
▁marvel	-10.9813
▁finer	-10.9814
▁celebr	-10.9815
▁menstrua	-10.9816
▁commit	-10.9816
▁japan	-10.9817
▁abundant	-10.9817
▁diminish	-10.9817
▁dispatch	-10.9817
▁gigant	-10.9817
▁obstinate	-10.9817
▁academy	-10.9817
▁accumulat	-10.9817
▁albert	-10.9817
▁banquet	-10.9817
▁collins	-10.9817
▁consum	-10.9817
▁delicious	-10.9817
▁document	-10.9817
▁editor	-10.9817
▁exclamation	-10.9817
▁february	-10.9817
▁footsteps	-10.9817
▁grotesque	-10.9817
▁heatherstone	-10.9817
▁humphrey	-10.9817
▁hurstwood	-10.9817
▁keats	-10.9817
▁mohammed	-10.9817
▁moscow	-10.9817
▁nicholas	-10.9817
▁phantom	-10.9817
▁philosopher	-10.9817
▁reception	-10.9817
▁spaniard	-10.9817
▁swollen	-10.9817
▁telephone	-10.9817
▁tribute	-10.9817
▁tunnel	-10.9817
▁unreasonabl	-10.9817
▁wigwam	-10.9817
▁behalf	-10.9817
▁charley	-10.9817
▁defence	-10.9817
▁drake	-10.9817
▁harbor	-10.9817
▁horrid	-10.9817
▁saloon	-10.9817
▁vault	-10.9817
▁launch	-10.9817
▁ninth	-10.9817
▁canada	-10.9817
▁flank	-10.9817
▁screen	-10.9817
▁speck	-10.9817
▁butterfly	-10.9817
▁kemp	-10.9817
▁stalk	-10.9817
▁cream	-10.9817
▁brute	-10.9817
▁owl	-10.9817
▁gallery	-10.9817
▁upright	-10.9817
▁inspire	-10.9817
▁decree	-10.9817
▁ferris	-10.9817
▁brisk	-10.9817
▁dandy	-10.9817
▁habitual	-10.9817
▁friday	-10.9817
▁crouch	-10.9817
▁providence	-10.9817
▁whither	-10.9817
▁digging	-10.9818
▁gulf	-10.9818
▁mountaineer	-10.9818
▁stringham	-10.9818
▁converse	-10.9818
▁projectile	-10.9818
▁craz	-10.9818
▁historic	-10.9818
▁continent	-10.9819
▁honey	-10.9819
▁hostile	-10.9819
▁heroine	-10.982
▁wail	-10.982
▁waist	-10.982
▁determination	-10.982
▁dispute	-10.9821
▁swamp	-10.9822
▁genie	-10.9823
▁morton	-10.9823
▁complexion	-10.9823
▁babies	-10.9823
▁terrific	-10.9824
▁admirable	-10.9824
▁assign	-10.9825
▁massive	-10.9826
▁rusk	-10.9826
▁affectionate	-10.9828
▁standard	-10.9828
▁rav	-10.9828
▁hush	-10.9829
▁mock	-10.983
▁prominent	-10.9831
▁busi	-10.9831
uel	-10.9834
▁bates	-10.9834
▁swimm	-10.9835
▁attraction	-10.9836
▁personage	-10.9838
▁ripp	-10.9841
▁maple	-10.9848
▁palm	-10.985
▁firmness	-10.985
▁cage	-10.986
▁magn	-10.9862
▁tools	-10.9864
▁mare	-10.987
▁destiny	-10.987
▁strictly	-10.9871
▁strongest	-10.9875
▁endured	-10.9876
▁exchang	-10.9878
▁whistle	-10.9879
▁politics	-10.9883
▁gri	-10.9883
▁thoughtfully	-10.9889
born	-10.9905
▁bending	-10.9909
▁compare	-10.991
▁grinn	-10.9913
▁thereby	-10.9914
▁del	-10.9923
▁courtes	-10.9929
▁bend	-10.993
▁commissioner	-10.9932
▁sorrowful	-10.9932
▁remov	-10.9937
▁produc	-10.9948
▁observer	-10.9951
▁boiling	-10.9958
▁charged	-10.9959
▁highness	-10.996
▁entertained	-10.9969
nlea	-10.9987
▁improved	-10.999
▁settl	-11.0001
▁roaring	-11.0017
▁route	-11.0027
▁quitt	-11.0031
▁growl	-11.0035
▁linen	-11.0037
▁ants	-11.006
▁moderate	-11.007
▁venera	-11.0103
▁rap	-11.0115
▁procure	-11.0123
▁creat	-11.0143
verse	-11.0149
ifying	-11.0153
bbl	-11.0166
▁shower	-11.0193
▁pea	-11.0203
▁div	-11.0205
cut	-11.0209
▁manager	-11.0217
▁resid	-11.0224
▁fulfil	-11.0226
▁whistl	-11.0244
▁flee	-11.0263
▁excite	-11.0305
▁babe	-11.0306
spoon	-11.031
worth	-11.0312
ught	-11.0337
▁brutal	-11.0338
▁republic	-11.0339
▁import	-11.034
▁detect	-11.0341
▁musket	-11.0342
▁discourag	-11.0343
▁indefinite	-11.0343
▁access	-11.0343
▁advertisement	-11.0343
▁benevolen	-11.0343
▁borodino	-11.0343
▁catholic	-11.0343
▁commercial	-11.0343
▁conjecture	-11.0343
▁cuthbert	-11.0343
▁democracy	-11.0343
▁estimate	-11.0343
▁gravity	-11.0343
▁guarantee	-11.0343
▁horseback	-11.0343
▁hypnosis	-11.0343
▁investigation	-11.0343
▁irregular	-11.0343
▁koyo	-11.0343
▁merriwig	-11.0343
▁miranda	-11.0343
▁nicholl	-11.0343
▁onlooker	-11.0343
▁persecut	-11.0343
▁plunder	-11.0343
▁rascal	-11.0343
▁recognition	-11.0343
▁rejoice	-11.0343
▁remembrance	-11.0343
▁senior	-11.0343
▁squirrel	-11.0343
▁tempest	-11.0343
▁treacher	-11.0343
▁underneath	-11.0343
▁uneasiness	-11.0343
▁unnecessary	-11.0343
▁upstairs	-11.0343
▁cheap	-11.0343
▁invariabl	-11.0343
▁plentiful	-11.0343
▁rostov	-11.0343
▁scold	-11.0343
▁situated	-11.0343
▁spencer	-11.0343
▁sympathetic	-11.0343
▁policy	-11.0343
▁envy	-11.0343
▁lamb	-11.0343
▁lilies	-11.0343
▁link	-11.0343
▁extract	-11.0343
▁corral	-11.0343
▁beckon	-11.0343
▁dispers	-11.0343
▁curtain	-11.0344
▁senor	-11.0344
▁copper	-11.0344
▁stirring	-11.0344
▁debate	-11.0344
▁grandcourt	-11.0344
▁steer	-11.0344
▁wallace	-11.0344
▁shaft	-11.0344
▁borg	-11.0344
▁hazard	-11.0345
▁gallop	-11.0345
▁verses	-11.0345
▁regretted	-11.0345
▁considerably	-11.0345
▁sober	-11.0345
▁determine	-11.0345
▁ardent	-11.0345
▁augustine	-11.0346
▁vexation	-11.0346
▁warrant	-11.0346
▁cough	-11.0347
▁marvelous	-11.0347
▁confide	-11.0348
▁instinctive	-11.0348
▁revelation	-11.0348
▁consolation	-11.0348
▁slice	-11.0349
▁encouragement	-11.035
▁naught	-11.035
▁assyrian	-11.0353
▁defi	-11.0355
▁stake	-11.0355
▁bland	-11.0358
▁cavell	-11.0358
▁homeward	-11.0359
▁pug	-11.0361
▁gap	-11.0362
▁bang	-11.0368
▁morality	-11.0368
▁eli	-11.037
rising	-11.037
▁lash	-11.0371
▁whistler	-11.0376
▁panel	-11.0377
▁hinder	-11.0378
lick	-11.0381
▁rib	-11.0382
▁laden	-11.0383
▁create	-11.0386
▁armies	-11.0388
▁copy	-11.0389
musing	-11.039
▁terr	-11.0394
▁obviously	-11.0416
▁mourning	-11.0421
▁blaz	-11.0439
▁fan	-11.044
▁statue	-11.0466
▁distinctly	-11.0467
▁greeting	-11.0477
▁dense	-11.0477
▁briefly	-11.0483
▁miller	-11.0493
▁tooth	-11.0505
▁rust	-11.0525
▁ru	-11.0529
mont	-11.0562
▁vein	-11.062
ace	-11.0623
▁feature	-11.0624
▁male	-11.0626
▁rout	-11.0685
hand	-11.0692
▁imagin	-11.0701
▁acquir	-11.0769
▁rustl	-11.077
▁vest	-11.0776
▁adopt	-11.0777
▁blaze	-11.0798
▁enabl	-11.0805
nut	-11.0806
erial	-11.0823
▁witt	-11.0854
▁precise	-11.0861
▁resolve	-11.0863
▁confine	-11.0865
▁terribl	-11.0866
▁continual	-11.0869
▁sac	-11.0875
ground	-11.088
capable	-11.089
spite	-11.0891
▁swam	-11.0892
▁consol	-11.0893
▁entreat	-11.0894
▁griev	-11.0896
▁inherit	-11.0897
escent	-11.0897
▁appar	-11.0897
▁enlighten	-11.0898
shaughnessy	-11.0898
▁alexander	-11.0898
▁assassin	-11.0898
▁behaviour	-11.0898
▁blade	-11.0898
▁blunt	-11.0898
▁ceiling	-11.0898
▁commerce	-11.0898
▁conference	-11.0898
▁constantinople	-11.0898
▁cradle	-11.0898
▁cricket	-11.0898
▁deasey	-11.0898
▁discipline	-11.0898
▁drouet	-11.0898
▁dwarf	-11.0898
▁economic	-11.0898
▁everlasting	-11.0898
▁frigate	-11.0898
▁incessant	-11.0898
▁inflict	-11.0898
▁injustice	-11.0898
▁levison	-11.0898
▁lobster	-11.0898
▁lufton	-11.0898
▁luxury	-11.0898
▁manuscript	-11.0898
▁marvellous	-11.0898
▁misunderstand	-11.0898
▁overflow	-11.0898
▁redoubt	-11.0898
▁resolute	-11.0898
▁salvation	-11.0898
▁sermon	-11.0898
▁snatch	-11.0898
▁struggling	-11.0898
▁surprising	-11.0898
▁tragedy	-11.0898
▁trigger	-11.0898
▁tuesday	-11.0898
▁twilight	-11.0898
▁undoubtedly	-11.0898
▁vegetable	-11.0898
▁vulgar	-11.0898
▁waistcoat	-11.0898
▁wrinkle	-11.0898
▁abolition	-11.0898
▁annual	-11.0898
▁atlantic	-11.0898
▁liquid	-11.0898
▁slaughter	-11.0898
▁soothing	-11.0898
▁expert	-11.0898
▁twig	-11.0898
▁unique	-11.0898
▁repress	-11.0899
▁harvey	-11.0899
▁restoration	-11.0899
▁slain	-11.0899
▁crash	-11.0899
▁tank	-11.0899
▁wrath	-11.0899
▁barber	-11.0899
▁uproar	-11.0899
▁apology	-11.0899
▁grocer	-11.0899
▁pretti	-11.0899
▁badger	-11.0899
▁bridle	-11.0899
▁politician	-11.0899
▁scant	-11.0899
▁pudding	-11.0899
▁mirth	-11.0899
▁expensive	-11.0899
▁grip	-11.0899
▁admission	-11.0899
▁tangle	-11.0899
▁lyra	-11.0899
▁cash	-11.0899
▁bidding	-11.09
▁sept	-11.09
▁linger	-11.09
▁canyon	-11.09
▁foster	-11.09
▁cristo	-11.09
▁lend	-11.0901
▁wives	-11.0901
▁foam	-11.0901
lamour	-11.0902
▁fertil	-11.0902
▁gaily	-11.0902
▁devotion	-11.0902
wixt	-11.0903
▁ardan	-11.0903
▁fisherman	-11.0904
▁armour	-11.0904
▁resemblance	-11.0904
▁mute	-11.0905
▁cruelty	-11.0905
▁irresistible	-11.0905
▁hullo	-11.0905
▁patron	-11.0906
▁wireless	-11.0906
▁unworth	-11.0907
berries	-11.0907
▁pope	-11.0907
▁capitalist	-11.0908
stock	-11.0908
▁darn	-11.0908
▁lance	-11.0911
▁richard	-11.0912
▁lordship	-11.0912
▁equipp	-11.0913
▁drunken	-11.0914
▁injured	-11.0916
▁replaced	-11.0916
▁assertion	-11.0917
▁wages	-11.0917
▁plank	-11.0918
▁earliest	-11.092
▁cutter	-11.092
▁forbidden	-11.092
▁tire	-11.0921
▁gardener	-11.0922
▁steward	-11.0925
▁heighten	-11.0926
icity	-11.0933
▁plantation	-11.0933
▁thorn	-11.0938
▁followers	-11.0941
▁confirmed	-11.0948
▁reassur	-11.0951
▁radiant	-11.0954
▁rando	-11.0954
▁practised	-11.0978
ella	-11.0981
▁menace	-11.0984
▁barry	-11.0988
▁despise	-11.099
▁hi	-11.0997
uminat	-11.1013
▁quicker	-11.1015
▁fiercely	-11.1015
mid	-11.1021
▁woe	-11.104
▁lessen	-11.1043
▁soup	-11.1047
▁prop	-11.1053
atus	-11.1081
▁typ	-11.1081
▁shan	-11.1123
▁tho	-11.113
▁singer	-11.1134
▁pear	-11.1138
▁reverse	-11.1147
▁flo	-11.1203
ility	-11.1233
▁refer	-11.1237
▁sew	-11.1259
▁perceiv	-11.1266
glo	-11.1278
ipped	-11.1347
▁oppos	-11.1356
▁simpl	-11.1362
▁basin	-11.1366
▁curse	-11.1394
▁conclude	-11.1451
▁guilt	-11.1453
▁pel	-11.1457
▁intima	-11.1465
▁harmon	-11.147
house	-11.1473
tail	-11.1475
▁beech	-11.1476
▁barbar	-11.1479
rank	-11.1481
▁equip	-11.1481
diction	-11.1482
▁resign	-11.1483
▁pension	-11.1486
fare	-11.1486
▁languid	-11.1487
▁simultaneous	-11.1487
efficient	-11.1487
sgiving	-11.1487
▁analysis	-11.1487
▁appreciation	-11.1487
▁asylum	-11.1487
▁cartridge	-11.1487
▁challenge	-11.1487
▁cluster	-11.1487
▁compound	-11.1487
▁crayfish	-11.1487
▁crimson	-11.1487
▁cucumetto	-11.1487
▁disaster	-11.1487
▁entitle	-11.1487
▁epoch	-11.1487
▁errand	-11.1487
▁examining	-11.1487
▁expand	-11.1487
▁extensive	-11.1487
▁gloody	-11.1487
▁insignificant	-11.1487
▁landlord	-11.1487
▁legislature	-11.1487
▁negative	-11.1487
▁norhala	-11.1487
▁pacific	-11.1487
▁pastrini	-11.1487
▁phronsie	-11.1487
▁scandal	-11.1487
▁skeleton	-11.1487
▁sketch	-11.1487
▁sweat	-11.1487
▁unjust	-11.1487
▁vexed	-11.1487
▁conquest	-11.1487
▁december	-11.1487
▁energetic	-11.1487
▁extinguish	-11.1487
▁magua	-11.1487
▁majestic	-11.1487
▁pepper	-11.1487
▁prolong	-11.1487
▁reconcil	-11.1487
▁regain	-11.1487
▁transform	-11.1487
▁coloss	-11.1487
▁ethel	-11.1487
▁shilling	-11.1487
▁shrewd	-11.1487
▁clavier	-11.1487
▁overlook	-11.1487
▁sullen	-11.1487
▁agnes	-11.1487
▁mysteries	-11.1487
▁wrist	-11.1487
▁grandeur	-11.1487
▁glid	-11.1487
▁mould	-11.1487
▁dantes	-11.1487
▁enquir	-11.1487
▁introduction	-11.1487
▁sonya	-11.1487
▁terrace	-11.1487
ology	-11.1487
▁trench	-11.1487
▁lush	-11.1487
▁hypnotism	-11.1487
▁dinah	-11.1488
▁ferocious	-11.1488
▁reverence	-11.1488
▁robert	-11.1488
▁transport	-11.1488
▁appointment	-11.1488
▁patriotism	-11.1488
▁falsehood	-11.1488
▁puritan	-11.1488
▁captive	-11.1488
▁couch	-11.1489
lock	-11.149
▁cavit	-11.149
▁genial	-11.149
▁studies	-11.1491
▁magician	-11.1491
▁cellar	-11.1491
▁puff	-11.1491
▁resentment	-11.1492
▁repent	-11.1492
▁sancho	-11.1492
▁plot	-11.1493
▁forsake	-11.1493
▁management	-11.1494
▁magnet	-11.1494
▁whim	-11.1497
▁stockings	-11.1497
▁knitting	-11.1498
▁torch	-11.1498
▁jean	-11.1498
roche	-11.1499
▁communication	-11.1499
▁indication	-11.1499
▁compel	-11.15
▁ohio	-11.15
▁jury	-11.1503
▁utterance	-11.1504
▁turnip	-11.1505
▁speculation	-11.1506
▁quantity	-11.1507
▁minor	-11.151
▁cautiously	-11.1512
▁convert	-11.1513
▁hardship	-11.1513
▁highway	-11.1516
▁hull	-11.1516
▁advis	-11.152
▁maud	-11.1524
advert	-11.1527
▁trifl	-11.1528
▁eighteenth	-11.1529
▁alleg	-11.1531
▁jess	-11.154
numer	-11.1542
rrel	-11.1547
fish	-11.1553
▁subsid	-11.1563
▁baker	-11.1564
▁carrie	-11.1566
post	-11.1566
▁formation	-11.1571
▁factory	-11.1575
▁spit	-11.1576
▁critical	-11.1577
▁lull	-11.1578
▁pitt	-11.1594
▁based	-11.1625
▁realm	-11.1625
burn	-11.1637
▁popp	-11.1663
▁carve	-11.1673
nald	-11.1688
▁shal	-11.1713
▁procur	-11.1736
▁copie	-11.1748
▁pupil	-11.1833
▁shoe	-11.1835
▁parent	-11.1849
▁strok	-11.1872
▁jer	-11.1909
▁chang	-11.195
▁dru	-11.1975
▁chee	-11.199
▁mourn	-11.1992
▁mau	-11.2003
▁statu	-11.2006
sippi	-11.202
▁fasten	-11.2034
▁pav	-11.2051
scribed	-11.2053
▁accuse	-11.2076
turned	-11.21
▁afflict	-11.2102
break	-11.2103
▁threat	-11.2104
▁distribut	-11.2107
▁compass	-11.2107
▁introduce	-11.2107
▁imprison	-11.2108
▁displeas	-11.2111
▁parson	-11.2111
▁braz	-11.2111
▁ancestors	-11.2112
▁applause	-11.2112
▁attorney	-11.2112
▁blunder	-11.2112
▁caravan	-11.2112
▁catastrophe	-11.2112
▁cavalcanti	-11.2112
▁clump	-11.2112
▁cromwell	-11.2112
▁edition	-11.2112
▁envoy	-11.2112
▁exhaustion	-11.2112
▁fiend	-11.2112
▁fortnight	-11.2112
▁generosity	-11.2112
▁gimblet	-11.2112
▁hardquanonne	-11.2112
▁houarn	-11.2112
▁injury	-11.2112
▁judith	-11.2112
▁mackinson	-11.2112
▁marianne	-11.2112
▁memorable	-11.2112
▁oglethorpe	-11.2112
▁petticoat	-11.2112
▁raspberr	-11.2112
▁refined	-11.2112
▁rehnhjelm	-11.2112
▁rejoicing	-11.2112
▁remnant	-11.2112
▁revolv	-11.2112
▁scotland	-11.2112
▁shrink	-11.2112
▁switch	-11.2112
▁testimony	-11.2112
▁thereafter	-11.2112
▁thirtieth	-11.2112
▁twentieth	-11.2112
▁undertaking	-11.2112
▁ventnor	-11.2112
▁veteran	-11.2112
▁whittaker	-11.2112
▁zverkov	-11.2112
▁assault	-11.2112
▁bruise	-11.2112
▁carthage	-11.2112
▁falander	-11.2112
▁orleans	-11.2112
▁possum	-11.2112
▁rash	-11.2112
▁stool	-11.2112
▁sympathi	-11.2112
▁twitch	-11.2112
court	-11.2112
▁cardinal	-11.2112
▁clung	-11.2112
▁gnaw	-11.2112
▁loaf	-11.2112
▁located	-11.2112
▁siege	-11.2112
▁tyrant	-11.2112
▁automatic	-11.2112
▁resort	-11.2112
▁sarah	-11.2112
▁chalk	-11.2112
▁densher	-11.2112
▁pretence	-11.2112
▁levin	-11.2112
▁navy	-11.2112
▁ingenious	-11.2112
▁chancellor	-11.2112
▁repay	-11.2112
▁roast	-11.2112
▁waking	-11.2112
▁transferred	-11.2112
▁baffl	-11.2112
▁deliberately	-11.2112
▁liking	-11.2112
▁altar	-11.2112
▁occurrence	-11.2112
▁pledge	-11.2112
▁glee	-11.2112
▁comparison	-11.2112
▁standpoint	-11.2112
▁harrow	-11.2112
▁outrage	-11.2112
▁webb	-11.2112
▁righteous	-11.2112
▁wingfold	-11.2112
▁basis	-11.2112
▁abyss	-11.2112
▁adela	-11.2112
▁simonov	-11.2113
▁superintendent	-11.2113
▁regulat	-11.2113
▁vacan	-11.2113
▁ticket	-11.2113
▁sprawl	-11.2114
▁spider	-11.2114
▁paradi	-11.2114
▁sphere	-11.2114
▁celebrated	-11.2114
▁raid	-11.2114
▁moose	-11.2114
▁picturesque	-11.2114
▁loki	-11.2115
▁fuss	-11.2115
with	-11.2115
ceasing	-11.2116
▁barbarous	-11.2116
▁accomplishment	-11.2116
▁separation	-11.2117
▁doyle	-11.2117
▁perplexity	-11.2117
▁peck	-11.2118
▁templeton	-11.2119
▁limp	-11.2119
▁pomp	-11.212
▁gratified	-11.212
▁exhibition	-11.212
▁drear	-11.212
▁grumble	-11.2121
▁delicacy	-11.2122
▁dependent	-11.2122
▁invest	-11.2122
▁weariness	-11.2123
▁semi	-11.2124
▁procession	-11.2124
▁saving	-11.2124
▁hover	-11.2125
▁simpleton	-11.2125
▁fringe	-11.2125
▁vary	-11.2126
▁witch	-11.2127
▁startling	-11.2128
▁bras	-11.2131
▁effective	-11.2131
▁film	-11.2131
▁tact	-11.2132
▁cherr	-11.2133
▁harry	-11.2133
▁stumbl	-11.2137
▁travelers	-11.2137
▁protector	-11.2139
▁mice	-11.214
▁parry	-11.2142
▁pitiful	-11.2142
▁wrap	-11.2145
▁terrifi	-11.2146
▁occasional	-11.2147
▁personality	-11.2149
▁production	-11.215
▁weaken	-11.215
▁stow	-11.2153
▁eh	-11.2154
▁thereupon	-11.2155
▁stam	-11.2157
▁nemo	-11.2158
▁undo	-11.2158
▁trous	-11.216
▁quicken	-11.2163
▁architectur	-11.2164
▁weston	-11.2165
▁sickness	-11.2165
arrington	-11.2166
▁inventor	-11.217
▁moor	-11.2182
apping	-11.2184
▁endow	-11.2189
▁vanit	-11.2191
▁cad	-11.2193
▁clapp	-11.2203
▁trott	-11.2204
▁roby	-11.2217
▁preacher	-11.2227
▁agoni	-11.2228
bation	-11.2233
▁thankful	-11.2235
▁handful	-11.2242
▁ef	-11.2243
▁tad	-11.226
▁obligation	-11.2268
▁exceptional	-11.2272
▁rac	-11.2274
duced	-11.228
▁wade	-11.2284
lusive	-11.2298
▁federa	-11.2314
empt	-11.2356
▁chuck	-11.2374
▁stag	-11.2379
dramatic	-11.2403
bon	-11.2434
▁comic	-11.2443
ots	-11.2482
▁gravel	-11.2483
mission	-11.2492
▁historian	-11.2501
▁egg	-11.2521
thful	-11.2547
▁marsh	-11.2565
▁stud	-11.2638
▁drown	-11.2648
▁appli	-11.265
▁frighten	-11.2657
luded	-11.2671
rai	-11.2675
▁physic	-11.2738
▁psycholog	-11.2739
▁inevitabl	-11.2745
▁span	-11.2746
▁gav	-11.2749
▁deceive	-11.2758
keeper	-11.2762
nson	-11.2762
▁exert	-11.2763
▁illustrat	-11.2765
▁dive	-11.2767
bound	-11.2773
▁adjust	-11.2775
▁advent	-11.2776
▁enclos	-11.2777
▁alexandr	-11.2778
▁bartholemy	-11.2778
▁channing	-11.2778
▁citoyen	-11.2778
▁climate	-11.2778
▁clums	-11.2778
▁contemporar	-11.2778
▁desolate	-11.2778
▁discontent	-11.2778
▁disregard	-11.2778
▁division	-11.2778
▁elephant	-11.2778
▁enigma	-11.2778
▁fernando	-11.2778
▁ferralti	-11.2778
▁foliage	-11.2778
▁fugitive	-11.2778
▁gambling	-11.2778
▁glimmer	-11.2778
▁interpose	-11.2778
▁involuntarily	-11.2778
▁labyrinth	-11.2778
▁lecture	-11.2778
▁legitimate	-11.2778
▁millionaire	-11.2778
▁monument	-11.2778
▁navigat	-11.2778
▁parallel	-11.2778
▁perception	-11.2778
▁propriety	-11.2778
▁refrain	-11.2778
▁ruggles	-11.2778
▁scripture	-11.2778
▁shroud	-11.2778
▁splendor	-11.2778
▁squadron	-11.2778
▁squeak	-11.2778
▁stricken	-11.2778
▁swarm	-11.2778
▁temperature	-11.2778
▁tomorrow	-11.2778
▁twinkling	-11.2778
▁velvet	-11.2778
▁wolves	-11.2778
▁apparition	-11.2778
▁gratification	-11.2778
▁kavin	-11.2778
▁rebellion	-11.2778
▁shrill	-11.2778
▁streak	-11.2778
▁unequal	-11.2778
▁reckless	-11.2778
▁solution	-11.2778
▁wadman	-11.2778
▁apron	-11.2778
▁martha	-11.2778
▁piteous	-11.2778
▁tarkas	-11.2778
▁bonnet	-11.2778
▁brink	-11.2778
▁dumb	-11.2778
▁fowl	-11.2778
▁shatter	-11.2778
▁haughty	-11.2778
▁amabel	-11.2778
▁screw	-11.2778
▁huron	-11.2778
▁empti	-11.2778
▁enrage	-11.2778
▁infern	-11.2778
▁flint	-11.2779
▁reap	-11.2779
▁adorn	-11.2779
▁quaint	-11.2779
▁myriad	-11.2779
▁expir	-11.2779
▁probabilit	-11.2779
▁flask	-11.2779
▁eliza	-11.2779
▁jones	-11.2779
▁cruis	-11.2779
▁medea	-11.2779
▁grunt	-11.2779
▁thereof	-11.2779
▁impetu	-11.2779
▁husk	-11.2779
▁caprice	-11.278
▁cedar	-11.278
▁scrapper	-11.278
▁baroness	-11.278
▁overhear	-11.278
▁perverse	-11.278
burton	-11.278
▁ginger	-11.278
▁sample	-11.278
rought	-11.278
▁solve	-11.278
▁alert	-11.2781
▁imaginary	-11.2781
▁theodora	-11.2781
▁thornton	-11.2781
▁relationship	-11.2781
▁wax	-11.2782
▁inquiring	-11.2782
▁ominous	-11.2782
▁lucas	-11.2782
▁trout	-11.2782
▁republican	-11.2783
▁southward	-11.2783
▁famine	-11.2784
▁northward	-11.2784
▁armand	-11.2784
▁knel	-11.2784
▁buff	-11.2784
▁translat	-11.2784
▁riot	-11.2784
▁text	-11.2785
▁candid	-11.2786
▁felicity	-11.2787
▁feat	-11.2788
▁acute	-11.2789
▁socialist	-11.2789
▁traitor	-11.279
▁bandit	-11.2791
▁shin	-11.2793
▁ragg	-11.2794
▁harmless	-11.2797
▁lent	-11.2798
▁executed	-11.28
▁demonstration	-11.2801
▁idol	-11.2802
▁alongside	-11.2804
▁hood	-11.2805
▁democratic	-11.2805
▁shallow	-11.2806
▁ultimately	-11.2807
▁mansion	-11.281
▁arisen	-11.2814
▁gem	-11.2816
▁bob	-11.2819
▁certainty	-11.2822
▁sellen	-11.283
▁topic	-11.2834
▁conceived	-11.2836
acity	-11.2839
▁robbery	-11.2839
▁soften	-11.284
▁forbid	-11.2847
▁ruby	-11.2848
▁kenn	-11.2851
▁brighten	-11.2857
▁fearless	-11.2863
▁colon	-11.2874
▁mystic	-11.2885
▁whipp	-11.289
▁stimulat	-11.2905
▁allud	-11.2906
▁draper	-11.2925
▁flam	-11.2934
▁trader	-11.2937
▁civiliz	-11.2972
▁ji	-11.2977
▁slo	-11.2987
human	-11.3006
▁artistic	-11.3035
bility	-11.3043
▁behav	-11.3063
▁wagg	-11.3077
ulation	-11.3091
▁legg	-11.3093
▁purchas	-11.3099
▁bak	-11.3117
▁fortress	-11.318
▁spectator	-11.3214
▁kneel	-11.3244
▁guid	-11.3261
ware	-11.3261
▁annett	-11.3292
▁refus	-11.3322
liness	-11.3334
▁brim	-11.3345
▁devot	-11.3359
▁announc	-11.3364
▁brac	-11.3368
▁despis	-11.3375
▁rig	-11.3416
▁kenne	-11.3416
▁remarkabl	-11.3433
▁wick	-11.3454
▁engage	-11.3454
▁amuse	-11.3455
▁convince	-11.3457
▁divide	-11.3457
▁louis	-11.346
▁speculat	-11.3469
▁elevat	-11.3481
▁champ	-11.3482
▁boar	-11.3483
mouth	-11.3484
▁corrupt	-11.3488
▁columb	-11.349
ological	-11.3492
▁abnormal	-11.3493
▁coulson	-11.3493
▁debray	-11.3493
▁dietrich	-11.3493
▁duchess	-11.3493
▁ellison	-11.3493
▁merciless	-11.3493
▁montoni	-11.3493
▁promising	-11.3493
▁scientist	-11.3493
▁shalmaneser	-11.3493
▁substantial	-11.3493
▁symbol	-11.3493
▁tranquil	-11.3493
▁zadig	-11.3493
▁abominabl	-11.3493
▁advertiser	-11.3493
▁advertising	-11.3493
▁annihilat	-11.3493
▁artillery	-11.3493
▁bristol	-11.3493
▁cathedral	-11.3493
▁competitor	-11.3493
▁confront	-11.3493
▁crevice	-11.3493
▁cushion	-11.3493
▁deject	-11.3493
▁depress	-11.3493
▁disadvantage	-11.3493
▁disapprov	-11.3493
▁embodi	-11.3493
▁emphasis	-11.3493
▁excursion	-11.3493
▁fantastic	-11.3493
▁feminin	-11.3493
▁furnace	-11.3493
▁gesticulat	-11.3493
▁harbour	-11.3493
▁harvard	-11.3493
▁inconvenience	-11.3493
▁incredible	-11.3493
▁indescribable	-11.3493
▁insolent	-11.3493
▁intensity	-11.3493
▁invalid	-11.3493
▁mesopotamia	-11.3493
▁mosquito	-11.3493
▁narrative	-11.3493
▁nowadays	-11.3493
▁opportunities	-11.3493
▁perfume	-11.3493
▁rectangle	-11.3493
▁relax	-11.3493
▁remonstrance	-11.3493
▁renown	-11.3493
▁restaurant	-11.3493
▁signature	-11.3493
▁skull	-11.3493
▁splash	-11.3493
▁spruce	-11.3493
▁supposition	-11.3493
▁teapot	-11.3493
▁territory	-11.3493
▁traffic	-11.3493
▁treason	-11.3493
▁trumpet	-11.3493
▁unanimous	-11.3493
▁unaware	-11.3493
▁vicinity	-11.3493
▁wreath	-11.3493
▁assurance	-11.3493
▁chopin	-11.3493
▁enlist	-11.3493
▁minnow	-11.3493
▁newberry	-11.3493
▁sneak	-11.3493
▁array	-11.3493
▁buckingham	-11.3493
▁dudley	-11.3493
▁tyrann	-11.3493
▁unluck	-11.3493
▁walter	-11.3493
▁birch	-11.3493
▁munger	-11.3493
▁smash	-11.3493
▁laura	-11.3493
▁pigeon	-11.3493
▁teddy	-11.3493
▁amateur	-11.3493
▁cooper	-11.3493
▁snuff	-11.3493
fensive	-11.3493
▁industri	-11.3493
▁blast	-11.3493
▁partition	-11.3493
▁tidings	-11.3493
▁touchett	-11.3493
▁exult	-11.3493
▁abode	-11.3493
▁forbear	-11.3493
▁ribbon	-11.3493
▁fuegians	-11.3493
hospitabl	-11.3493
▁orient	-11.3493
▁tube	-11.3493
▁mature	-11.3493
▁slay	-11.3493
▁prowl	-11.3493
▁muffle	-11.3493
▁intolerabl	-11.3493
▁adversary	-11.3493
tercourse	-11.3493
▁alliance	-11.3493
leigh	-11.3493
▁prostrat	-11.3493
▁crust	-11.3494
▁errant	-11.3494
▁usurp	-11.3494
▁register	-11.3494
▁hither	-11.3494
▁defined	-11.3494
▁hamlet	-11.3494
▁wavering	-11.3495
▁pump	-11.3495
▁parsonage	-11.3495
▁weird	-11.3495
▁swed	-11.3495
▁preference	-11.3495
▁cynic	-11.3495
▁antiquity	-11.3496
▁excessive	-11.3496
▁johnson	-11.3496
reabouts	-11.3496
▁incur	-11.3496
▁ditch	-11.3497
▁implie	-11.3497
▁georgia	-11.3497
▁wigan	-11.3498
▁patent	-11.3498
▁attractive	-11.3499
▁bristl	-11.35
▁employment	-11.35
▁workhouse	-11.35
▁settlement	-11.35
▁gaunt	-11.3501
▁hateful	-11.3501
▁attachment	-11.3502
▁expedient	-11.3502
▁boyhood	-11.3503
▁upset	-11.3503
▁chim	-11.3503
▁continuous	-11.3503
▁data	-11.3503
▁scamper	-11.3503
▁bustl	-11.3504
▁elevation	-11.3504
▁nineteenth	-11.3504
▁theories	-11.3504
▁policeman	-11.3505
▁wove	-11.3505
▁ashes	-11.3506
▁flies	-11.3506
▁epi	-11.3508
▁nobleman	-11.3509
▁barton	-11.3512
▁max	-11.3513
▁suck	-11.3513
▁marine	-11.3514
▁unlike	-11.3515
▁cuban	-11.3518
mered	-11.3518
▁objective	-11.3519
▁jackal	-11.3522
▁nobility	-11.3524
▁tink	-11.3524
▁toast	-11.3527
▁norway	-11.3528
▁justified	-11.3528
▁psychology	-11.353
▁tenant	-11.353
▁undertaken	-11.3533
▁facilit	-11.3535
▁ode	-11.3539
ometer	-11.3551
▁executioner	-11.3556
▁jost	-11.3558
▁trimm	-11.3571
▁chiu	-11.358
▁strap	-11.3627
▁mace	-11.3642
▁nurs	-11.3667
▁gull	-11.3667
▁quak	-11.3676
▁sham	-11.3681
▁verb	-11.3704
▁vigil	-11.3732
▁quote	-11.3763
▁opera	-11.3764
▁qualifi	-11.3802
▁pane	-11.3829
▁scu	-11.385
▁prophe	-11.3872
▁slap	-11.3875
apped	-11.3877
▁stair	-11.3991
▁instruction	-11.3994
mmi	-11.4007
▁accidental	-11.4022
▁determin	-11.4072
▁divin	-11.4114
tain	-11.4123
▁jaw	-11.4132
▁publish	-11.4133
▁vanish	-11.4141
▁coloni	-11.4148
▁poetic	-11.4154
▁muni	-11.4161
▁humb	-11.4185
▁equ	-11.419
▁stewar	-11.4224
▁demonstrat	-11.4236
▁fright	-11.4243
voluntary	-11.4253
▁popul	-11.4253
woman	-11.4254
▁vigor	-11.4258
master	-11.4261
▁screech	-11.4262
sylvan	-11.4262
▁accusation	-11.4262
▁activities	-11.4262
▁administer	-11.4262
▁archibald	-11.4262
▁bechamel	-11.4262
▁blake	-11.4262
▁bourgeois	-11.4262
▁buzz	-11.4262
▁calamity	-11.4262
▁cemetery	-11.4262
▁chocolate	-11.4262
▁croxley	-11.4262
▁deronda	-11.4262
▁downstairs	-11.4262
▁drowsy	-11.4262
▁eccentric	-11.4262
▁encamp	-11.4262
▁enforce	-11.4262
▁enlarg	-11.4262
▁euralia	-11.4262
▁fabric	-11.4262
▁festival	-11.4262
▁genteel	-11.4262
▁happier	-11.4262
▁henrietta	-11.4262
▁impossibilit	-11.4262
▁insurrection	-11.4262
▁kihachi	-11.4262
▁lorenzo	-11.4262
▁martineau	-11.4262
▁matron	-11.4262
▁michael	-11.4262
▁mischievous	-11.4262
▁monotonous	-11.4262
▁negotiat	-11.4262
▁nephew	-11.4262
▁occupant	-11.4262
▁oxford	-11.4262
▁paralyz	-11.4262
▁patricius	-11.4262
▁possibilities	-11.4262
▁pretension	-11.4262
▁prosperity	-11.4262
▁receipt	-11.4262
▁savonarola	-11.4262
▁serpent	-11.4262
▁snug	-11.4262
▁sombre	-11.4262
▁staircase	-11.4262
▁stepmother	-11.4262
▁suburb	-11.4262
▁tebbs	-11.4262
▁vampa	-11.4262
▁vandals	-11.4262
▁vegetati	-11.4262
▁veronica	-11.4262
▁villona	-11.4262
▁vizier	-11.4262
▁wednesday	-11.4262
▁acquiesc	-11.4262
▁agricultur	-11.4262
▁apprentice	-11.4262
▁baggage	-11.4262
▁beseech	-11.4262
▁blend	-11.4262
▁churchwarden	-11.4262
▁ensued	-11.4262
▁essence	-11.4262
▁rapture	-11.4262
▁soussio	-11.4262
▁strand	-11.4262
▁tanner	-11.4262
▁undress	-11.4262
▁imposing	-11.4262
▁margin	-11.4262
▁pebble	-11.4262
▁shasta	-11.4262
▁assail	-11.4262
▁bulk	-11.4262
▁lavish	-11.4262
▁chirp	-11.4262
▁enrich	-11.4262
▁systematic	-11.4262
▁fragran	-11.4262
▁marquis	-11.4262
▁exciting	-11.4262
▁ushant	-11.4262
▁senate	-11.4262
▁retrac	-11.4262
▁transfer	-11.4262
▁worried	-11.4262
▁amazing	-11.4262
▁fanatic	-11.4262
▁flitt	-11.4262
▁energi	-11.4262
▁omni	-11.4262
▁outfit	-11.4262
borough	-11.4262
▁futil	-11.4262
▁impuden	-11.4262
▁slippery	-11.4262
▁samson	-11.4262
▁jackson	-11.4262
▁persian	-11.4262
▁dragoon	-11.4262
▁undulat	-11.4262
▁tract	-11.4263
▁insolenc	-11.4263
terdam	-11.4263
▁thurs	-11.4263
▁dangl	-11.4263
▁jefferson	-11.4263
▁ascent	-11.4263
▁imperial	-11.4263
▁displeasure	-11.4263
▁interference	-11.4263
▁chaos	-11.4264
▁contemptuous	-11.4264
▁damsel	-11.4264
▁placid	-11.4264
▁doomed	-11.4264
▁confidential	-11.4264
▁jelly	-11.4264
▁loyal	-11.4265
▁odor	-11.4265
▁foresee	-11.4265
▁defiant	-11.4265
▁urgent	-11.4265
▁ego	-11.4265
▁adjustment	-11.4266
▁missionary	-11.4266
▁railway	-11.4266
▁brick	-11.4266
▁void	-11.4266
▁roos	-11.4266
▁whiskers	-11.4267
▁readiness	-11.4267
▁tuck	-11.4268
▁mound	-11.4268
▁comfortably	-11.4268
▁entreaties	-11.4268
▁chapel	-11.4269
junction	-11.4269
▁refreshment	-11.427
nnae	-11.427
▁customary	-11.4271
▁lapse	-11.4271
▁alderm	-11.4271
▁cargo	-11.4272
▁homo	-11.4272
▁imitation	-11.4272
▁roam	-11.4272
▁detest	-11.4273
▁packet	-11.4275
▁gait	-11.4275
▁guardian	-11.4275
▁acceptance	-11.4276
▁superb	-11.4277
▁strew	-11.4278
shu	-11.4279
▁beeches	-11.4279
▁stripp	-11.4279
▁sixteenth	-11.4283
▁forbes	-11.4283
print	-11.4284
▁rack	-11.4287
xter	-11.4288
much	-11.4289
▁scenery	-11.4296
▁denial	-11.4297
▁stall	-11.4299
organ	-11.4308
▁fashionable	-11.4308
▁bret	-11.4318
▁gripp	-11.432
▁manifestation	-11.4329
serted	-11.4332
stres	-11.4355
▁organiz	-11.4361
mori	-11.4365
▁rambl	-11.4396
sincerity	-11.4401
▁slate	-11.4419
▁measur	-11.4429
▁associat	-11.4442
▁pri	-11.4497
▁duel	-11.4511
▁balanc	-11.4535
▁slop	-11.4551
mination	-11.4564
▁bead	-11.4613
▁audibl	-11.4669
▁appro	-11.4683
fred	-11.4684
▁garment	-11.4828
▁relat	-11.4832
obil	-11.4841
▁describ	-11.4873
▁declar	-11.4877
▁nap	-11.4916
morous	-11.4917
▁acknowledg	-11.4932
▁limb	-11.4946
laid	-11.5019
▁litera	-11.5021
▁magnificen	-11.5047
▁favourabl	-11.5055
▁involve	-11.5059
▁scare	-11.5059
▁fiddle	-11.5082
bread	-11.5087
text	-11.5087
▁whisk	-11.5089
▁trait	-11.5092
▁chick	-11.5093
wick	-11.5094
mpelled	-11.5095
ologist	-11.5095
▁accur	-11.5095
▁entangle	-11.5095
▁illustri	-11.5095
▁reluctant	-11.5095
▁unearth	-11.5095
scrupulous	-11.5095
▁conscientious	-11.5095
▁constrain	-11.5095
▁decisive	-11.5095
▁diligen	-11.5095
▁disastrous	-11.5095
▁financial	-11.5095
▁fundamental	-11.5095
▁indistinct	-11.5095
▁prohibit	-11.5095
▁ruffian	-11.5095
▁scorch	-11.5095
▁unhappi	-11.5095
▁wondrous	-11.5095
sychotherapeutic	-11.5095
▁apollo	-11.5095
▁arbitrar	-11.5095
▁belvane	-11.5095
▁boulevard	-11.5095
▁breeches	-11.5095
▁brillianc	-11.5095
▁coffin	-11.5095
▁contribution	-11.5095
▁convenience	-11.5095
▁coonskin	-11.5095
▁dagger	-11.5095
▁damascus	-11.5095
▁divorce	-11.5095
▁dominion	-11.5095
▁ecclesiastic	-11.5095
▁ecstasy	-11.5095
▁empress	-11.5095
▁eyebrows	-11.5095
▁eyelids	-11.5095
▁faculty	-11.5095
▁fathom	-11.5095
▁fundevogel	-11.5095
▁grammar	-11.5095
▁infection	-11.5095
▁innocence	-11.5095
▁inspiration	-11.5095
▁insufficient	-11.5095
▁intrigue	-11.5095
▁liquor	-11.5095
▁morgeson	-11.5095
▁muttering	-11.5095
▁obstruct	-11.5095
▁orpheus	-11.5095
▁patriarch	-11.5095
▁perceptibl	-11.5095
▁persuasion	-11.5095
▁phenomenon	-11.5095
▁plasmoid	-11.5095
▁plough	-11.5095
▁predecessor	-11.5095
▁rainbow	-11.5095
▁requisite	-11.5095
▁roylake	-11.5095
▁sarcastic	-11.5095
▁scoundrel	-11.5095
▁scruple	-11.5095
▁significance	-11.5095
▁skirmish	-11.5095
▁slumber	-11.5095
▁solomon	-11.5095
▁splendour	-11.5095
▁stealthily	-11.5095
▁telegram	-11.5095
▁tranquillity	-11.5095
▁vicious	-11.5095
discretion	-11.5095
▁beauties	-11.5095
▁bishop	-11.5095
▁conform	-11.5095
▁disdain	-11.5095
▁extort	-11.5095
▁split	-11.5095
▁virtuo	-11.5095
▁eames	-11.5095
▁huddl	-11.5095
▁thump	-11.5095
▁tragic	-11.5095
▁oneself	-11.5095
▁thrash	-11.5095
▁frantic	-11.5095
▁deceit	-11.5095
▁drain	-11.5095
▁longbill	-11.5095
▁sentinel	-11.5095
thwart	-11.5095
▁trudg	-11.5095
▁alban	-11.5095
▁broom	-11.5095
▁bunk	-11.5095
▁decease	-11.5095
▁compress	-11.5095
▁unlocked	-11.5095
▁costume	-11.5095
▁technical	-11.5095
▁aloft	-11.5095
▁dissipat	-11.5095
▁autom	-11.5095
▁rational	-11.5095
▁tackle	-11.5095
▁chattering	-11.5096
▁riddle	-11.5096
▁shabb	-11.5096
▁exclusive	-11.5096
▁submission	-11.5096
▁loneliness	-11.5096
▁medium	-11.5096
▁stifl	-11.5096
▁dron	-11.5096
▁rumour	-11.5097
▁brigham	-11.5097
▁venza	-11.5097
▁bubbl	-11.5097
▁congregation	-11.5097
hren	-11.5097
▁correspondence	-11.5097
▁hermit	-11.5098
▁noisy	-11.5098
▁yoke	-11.5098
▁devis	-11.5098
▁freight	-11.5099
▁avaric	-11.5099
▁theodo	-11.5099
▁imprisonment	-11.51
▁tension	-11.51
▁resignation	-11.5101
▁specific	-11.5101
▁grievous	-11.5101
▁corruption	-11.5101
▁bump	-11.5102
▁sanch	-11.5102
▁archway	-11.5102
▁loveliness	-11.5102
▁enchantment	-11.5102
▁ficti	-11.5102
▁distribution	-11.5102
▁potatoes	-11.5102
▁terminat	-11.5102
▁chord	-11.5103
▁bucket	-11.5103
▁gear	-11.5104
▁flora	-11.5104
ordan	-11.5105
▁token	-11.5105
▁slant	-11.5105
▁allusion	-11.5106
▁severit	-11.5106
▁turf	-11.5107
▁humiliation	-11.5107
▁churchill	-11.5107
ghast	-11.5107
▁controll	-11.5108
▁frontier	-11.5108
▁frail	-11.5109
▁loom	-11.5109
▁cultivation	-11.511
▁chum	-11.511
▁collector	-11.5112
▁butler	-11.5112
▁geograph	-11.5113
▁shawl	-11.5114
▁resultant	-11.5115
▁postman	-11.5115
▁hoop	-11.5116
▁wallet	-11.5118
▁coil	-11.5122
▁loch	-11.5123
▁grab	-11.5123
▁fascination	-11.5123
▁passive	-11.5123
▁chairman	-11.5126
▁lawton	-11.5127
▁divert	-11.5129
▁contradiction	-11.5131
▁disgraceful	-11.5132
horn	-11.5133
▁gub	-11.514
▁bury	-11.514
▁profus	-11.514
you	-11.5146
drawn	-11.5149
gotten	-11.5181
▁habitation	-11.5196
icott	-11.5213
▁toilet	-11.522
hild	-11.5246
▁thoris	-11.5246
▁marshal	-11.5387
pensive	-11.5437
etically	-11.5458
referred	-11.5462
anny	-11.549
laza	-11.5609
▁designate	-11.5628
osity	-11.5645
▁doug	-11.5703
▁nerve	-11.5725
uction	-11.5736
almon	-11.5763
▁beli	-11.5817
▁corps	-11.5834
▁practis	-11.5873
▁scatter	-11.5876
merged	-11.595
▁nigh	-11.5956
▁incline	-11.5969
▁stead	-11.597
▁compose	-11.5971
▁quart	-11.5983
▁humiliat	-11.5992
course	-11.5994
sensible	-11.5996
guard	-11.5996
hole	-11.5997
think	-11.5997
▁cuba	-11.6
▁exalt	-11.6001
▁gorge	-11.6001
▁pilgrim	-11.6003
▁utili	-11.6004
▁hysteri	-11.6004
▁abject	-11.6004
▁bliss	-11.6004
▁censor	-11.6004
▁exploit	-11.6004
▁scott	-11.6004
▁abstract	-11.6004
▁antagonist	-11.6004
▁appalling	-11.6004
▁awhile	-11.6004
▁barodia	-11.6004
▁benefactor	-11.6004
▁benjamin	-11.6004
▁bicycle	-11.6004
▁blausser	-11.6004
▁brownrigg	-11.6004
▁bullfrog	-11.6004
▁cabbage	-11.6004
▁ceremonies	-11.6004
▁chariot	-11.6004
▁circuit	-11.6004
▁clown	-11.6004
▁commotion	-11.6004
▁communities	-11.6004
▁compromise	-11.6004
▁cripple	-11.6004
▁despatch	-11.6004
▁discomfort	-11.6004
▁discreet	-11.6004
▁distemper	-11.6004
▁economy	-11.6004
▁ejaculat	-11.6004
▁elegance	-11.6004
▁eloquence	-11.6004
▁embroider	-11.6004
▁encouraging	-11.6004
▁entrust	-11.6004
▁extinct	-11.6004
▁faltered	-11.6004
▁fauchelevent	-11.6004
▁fissure	-11.6004
▁garrison	-11.6004
▁henceforth	-11.6004
▁inspiring	-11.6004
▁insurgent	-11.6004
▁irwine	-11.6004
▁kinraid	-11.6004
▁ludicrous	-11.6004
▁maleagans	-11.6004
▁massachusetts	-11.6004
▁mathematic	-11.6004
▁matrimon	-11.6004
▁maturity	-11.6004
▁moliere	-11.6004
▁moustache	-11.6004
▁obedient	-11.6004
▁perspiration	-11.6004
▁preliminar	-11.6004
▁privacy	-11.6004
▁prudent	-11.6004
▁refinement	-11.6004
▁revenue	-11.6004
▁schoolfellow	-11.6004
▁secrecy	-11.6004
▁segouin	-11.6004
▁stackpole	-11.6004
▁steventon	-11.6004
▁taboo	-11.6004
▁twelfth	-11.6004
▁unnatural	-11.6004
▁volunteer	-11.6004
▁wright	-11.6004
▁apprehend	-11.6004
▁ashore	-11.6004
▁bureau	-11.6004
▁despot	-11.6004
▁expend	-11.6004
▁helmet	-11.6004
▁invasion	-11.6004
▁melody	-11.6004
▁northanger	-11.6004
▁remsen	-11.6004
▁reparation	-11.6004
▁scowl	-11.6004
▁shrugg	-11.6004
▁strangl	-11.6004
▁deput	-11.6004
▁dizzy	-11.6004
▁gettysburg	-11.6004
▁investigate	-11.6004
▁jungle	-11.6004
▁snarl	-11.6004
▁gloss	-11.6004
▁headlong	-11.6004
▁snail	-11.6004
▁unchang	-11.6004
▁vacation	-11.6004
▁gravitati	-11.6004
▁luncheon	-11.6004
▁postpone	-11.6004
▁knave	-11.6004
▁museum	-11.6004
responsi	-11.6004
▁astound	-11.6004
▁vicar	-11.6004
▁yawn	-11.6004
▁aversion	-11.6004
▁creak	-11.6004
▁hovel	-11.6004
▁rheumatism	-11.6004
▁dripp	-11.6004
▁injuri	-11.6004
▁strata	-11.6004
▁mockery	-11.6004
▁domain	-11.6004
▁subsist	-11.6004
▁stunn	-11.6004
▁detach	-11.6005
▁dazed	-11.6005
▁haynes	-11.6005
▁overtake	-11.6005
▁frisk	-11.6005
▁liberat	-11.6005
▁eventual	-11.6005
▁dishes	-11.6005
▁rugged	-11.6005
▁concurren	-11.6005
▁menacing	-11.6005
▁nibbl	-11.6005
▁gangway	-11.6006
▁gower	-11.6006
▁winchester	-11.6006
▁malice	-11.6006
▁pilgrimage	-11.6006
▁circulation	-11.6006
▁harmonious	-11.6006
▁clover	-11.6006
▁violat	-11.6007
▁loyalty	-11.6007
▁hornby	-11.6007
▁russe	-11.6007
ruj	-11.6007
▁willows	-11.6008
▁overend	-11.6008
heim	-11.6008
▁lyre	-11.6008
▁disappearance	-11.6009
▁warfare	-11.6009
▁persistent	-11.6009
▁francisco	-11.6009
▁katy	-11.6009
▁procureur	-11.601
▁spook	-11.601
▁frock	-11.6011
▁lump	-11.6011
▁alternat	-11.6011
▁priv	-11.6012
▁rubbish	-11.6012
▁impressive	-11.6012
idney	-11.6012
▁brutality	-11.6012
▁fluid	-11.6012
▁clair	-11.6013
▁hans	-11.6013
▁aisle	-11.6013
cogni	-11.6013
minous	-11.6014
▁dancers	-11.6014
▁lava	-11.6014
▁voluntary	-11.6015
▁rug	-11.6015
▁protestant	-11.6016
▁concealment	-11.6017
▁affliction	-11.6018
▁gang	-11.6021
▁interpretation	-11.6022
▁illustration	-11.6023
▁hillside	-11.6023
▁irre	-11.6025
▁lina	-11.6029
lworth	-11.6031
▁alteration	-11.6034
▁ferry	-11.6034
▁conqueror	-11.6034
▁meditation	-11.6046
▁forcibl	-11.6048
▁signify	-11.6058
ocity	-11.6067
egu	-11.6103
▁realise	-11.6107
▁shameful	-11.6123
▁sauc	-11.6126
▁literal	-11.6135
munition	-11.6137
▁justify	-11.6289
▁abid	-11.6329
verted	-11.6387
▁signifi	-11.6451
▁dipp	-11.6467
▁azu	-11.6614
▁pathetic	-11.6641
▁indicat	-11.6663
▁nurser	-11.6688
▁adult	-11.6742
▁separat	-11.6822
▁whi	-11.683
▁exhibit	-11.6861
arius	-11.697
▁quantit	-11.6971
▁occu	-11.6978
▁dignit	-11.6978
▁perfor	-11.6992
mark	-11.6992
▁convent	-11.6994
▁smot	-11.6995
occupied	-11.6996
direct	-11.6996
understood	-11.6996
pool	-11.6996
chord	-11.6996
fected	-11.6997
fire	-11.6997
▁disagree	-11.6999
national	-11.6999
amsel	-11.7003
▁accost	-11.7004
▁affront	-11.7004
▁dismount	-11.7004
▁displac	-11.7004
▁embark	-11.7004
▁engross	-11.7004
▁plaster	-11.7004
▁proffer	-11.7004
▁research	-11.7004
▁sprinkl	-11.7004
▁uplift	-11.7004
evelt	-11.7004
▁abolish	-11.7004
▁acquisition	-11.7004
▁adequate	-11.7004
▁afresh	-11.7004
▁aggressive	-11.7004
▁aristocracy	-11.7004
▁arriving	-11.7004
▁behavior	-11.7004
▁benedetto	-11.7004
▁blond	-11.7004
▁bracelets	-11.7004
▁burglar	-11.7004
▁carpenter	-11.7004
▁cavalier	-11.7004
▁ceylon	-11.7004
▁chateau	-11.7004
▁clancharlie	-11.7004
▁collaps	-11.7004
▁colyumist	-11.7004
▁commonplace	-11.7004
▁connexion	-11.7004
▁conversing	-11.7004
▁convulsive	-11.7004
▁corroborat	-11.7004
▁crevasse	-11.7004
▁daubeny	-11.7004
▁deference	-11.7004
▁desolation	-11.7004
▁dishonest	-11.7004
▁disobey	-11.7004
▁dissatisfied	-11.7004
▁elastic	-11.7004
▁emigrant	-11.7004
▁emphasiz	-11.7004
▁escaping	-11.7004
▁essay	-11.7004
▁eternity	-11.7004
▁eugenie	-11.7004
▁evolution	-11.7004
▁festivit	-11.7004
▁gertrude	-11.7004
▁gilbert	-11.7004
▁girdle	-11.7004
▁godmother	-11.7004
▁handwriting	-11.7004
▁hurricane	-11.7004
▁hypocri	-11.7004
▁implored	-11.7004
▁improper	-11.7004
▁ingenuity	-11.7004
▁intoxication	-11.7004
▁jessica	-11.7004
▁judicious	-11.7004
▁license	-11.7004
▁lynne	-11.7004
▁magazine	-11.7004
▁miraculous	-11.7004
▁ostrog	-11.7004
▁peevish	-11.7004
▁phaeton	-11.7004
▁philadelphia	-11.7004
▁plausibl	-11.7004
▁proclamation	-11.7004
▁prodigious	-11.7004
▁prosperous	-11.7004
▁pulpit	-11.7004
▁razor	-11.7004
▁rector	-11.7004
▁ridicule	-11.7004
▁riverboro	-11.7004
▁shevardino	-11.7004
▁sidewalk	-11.7004
▁spacious	-11.7004
▁suffocat	-11.7004
▁suicide	-11.7004
▁sultan	-11.7004
▁sunbeam	-11.7004
▁superstition	-11.7004
▁sweetheart	-11.7004
▁sybil	-11.7004
▁teeter	-11.7004
▁tenaya	-11.7004
▁teresa	-11.7004
▁throckmorton	-11.7004
▁umbrella	-11.7004
▁voluntarily	-11.7004
▁wharf	-11.7004
▁wriggl	-11.7004
▁zone	-11.7004
▁athlete	-11.7004
▁coax	-11.7004
▁concession	-11.7004
▁fossil	-11.7004
▁glisten	-11.7004
▁impenetrab	-11.7004
▁jerome	-11.7004
▁judicia	-11.7004
▁kitty	-11.7004
▁radical	-11.7004
▁saxon	-11.7004
▁scotch	-11.7004
▁swoon	-11.7004
▁announcement	-11.7004
▁apologetic	-11.7004
▁ayrton	-11.7004
▁dinsmore	-11.7004
▁forefinger	-11.7004
▁grudge	-11.7004
▁legislati	-11.7004
▁massacre	-11.7004
▁prevalen	-11.7004
▁recital	-11.7004
▁tavern	-11.7004
▁cluck	-11.7004
▁discord	-11.7004
▁memoir	-11.7004
▁simian	-11.7004
▁dairy	-11.7004
▁frenz	-11.7004
▁greece	-11.7004
▁martyr	-11.7004
▁partisan	-11.7004
▁gayety	-11.7004
▁necklace	-11.7004
▁whimsical	-11.7004
▁diffus	-11.7004
▁lurk	-11.7004
▁session	-11.7004
▁austen	-11.7004
▁blink	-11.7004
▁disarm	-11.7004
▁contend	-11.7004
▁lemon	-11.7004
▁efficiency	-11.7004
▁isolated	-11.7004
▁taunt	-11.7004
▁salad	-11.7004
▁unbounded	-11.7004
▁weymouth	-11.7004
▁arteries	-11.7004
▁alternately	-11.7005
▁donkey	-11.7005
▁offense	-11.7005
▁proverb	-11.7005
toole	-11.7005
▁rita	-11.7005
▁reenter	-11.7005
▁sturd	-11.7005
▁shuffl	-11.7005
▁humility	-11.7005
▁pluto	-11.7005
▁robinson	-11.7005
▁demon	-11.7005
▁loath	-11.7005
▁jeweller	-11.7005
▁consumption	-11.7005
▁vanka	-11.7005
▁referee	-11.7005
▁hypothesis	-11.7005
▁colonists	-11.7005
▁rosebreast	-11.7005
▁emancipation	-11.7006
▁cycl	-11.7006
▁shepherdess	-11.7006
▁mattress	-11.7006
▁alaska	-11.7006
▁enclosure	-11.7006
▁farthing	-11.7006
▁menstruation	-11.7006
▁currant	-11.7006
▁clergyman	-11.7006
▁fratern	-11.7006
▁utility	-11.7007
▁mason	-11.7007
▁alex	-11.7007
▁prescribed	-11.7007
▁elms	-11.7007
▁indulgence	-11.7007
▁sculpture	-11.7007
▁regime	-11.7007
▁carbon	-11.7007
▁cupboard	-11.7007
▁dimple	-11.7007
▁croak	-11.7007
▁pensionary	-11.7007
▁brazil	-11.7008
▁inheritance	-11.7008
▁courtyard	-11.7008
▁woodhouse	-11.7008
▁stitch	-11.7009
▁reverent	-11.7009
▁gorgeous	-11.7009
▁exaltation	-11.7009
▁egotis	-11.701
▁consistent	-11.701
▁pike	-11.701
▁relish	-11.701
▁graft	-11.7011
▁garter	-11.7011
▁observance	-11.7011
▁guardsmen	-11.7011
▁inspection	-11.7012
▁attire	-11.7012
▁psychologist	-11.7012
▁fishermen	-11.7012
▁commodi	-11.7012
▁morley	-11.7013
▁shun	-11.7014
▁biograph	-11.7017
▁hospitalit	-11.7055
▁prelude	-11.7066
strial	-11.7069
▁skipp	-11.7073
▁inhal	-11.7118
ngloss	-11.7153
▁compli	-11.7155
▁jogg	-11.7201
▁sci	-11.723
tresses	-11.7281
▁gru	-11.7285
odious	-11.7298
▁deduc	-11.7316
▁frolic	-11.7345
▁circl	-11.7414
bourn	-11.7463
grea	-11.7558
ficiency	-11.7603
▁antiqu	-11.7638
mulate	-11.7831
▁pillar	-11.7836
▁stimul	-11.7903
▁retir	-11.7932
▁seiz	-11.7939
▁decid	-11.7954
▁disappoint	-11.7983
▁puzzl	-11.7986
▁ultimate	-11.8066
▁cautious	-11.8066
▁abrupt	-11.8067
▁execute	-11.8079
▁replace	-11.8079
▁injure	-11.8079
soever	-11.8081
▁responsibilit	-11.8081
▁assyria	-11.8094
flower	-11.8107
limited	-11.8107
sought	-11.8107
cloth	-11.8108
▁georgi	-11.8109
uspicious	-11.8109
▁rend	-11.8109
▁revel	-11.811
▁visib	-11.8111
disput	-11.8112
▁clergy	-11.8113
▁superintend	-11.8113
▁tempor	-11.8114
▁carli	-11.8114
▁succ	-11.8115
▁entrench	-11.8115
▁inflammat	-11.8115
▁ambiguous	-11.8115
▁discomfit	-11.8115
▁disconsolate	-11.8115
▁engaging	-11.8115
▁farragut	-11.8115
▁fastidious	-11.8115
▁hudson	-11.8115
▁incredulous	-11.8115
▁inquisitive	-11.8115
▁jeddak	-11.8115
▁macmurdo	-11.8115
▁mantelish	-11.8115
▁masculin	-11.8115
▁milburgh	-11.8115
▁murphy	-11.8115
▁narwhale	-11.8115
▁ocumpaugh	-11.8115
▁overpower	-11.8115
▁pewee	-11.8115
▁phillips	-11.8115
▁rosalind	-11.8115
▁scotia	-11.8115
▁shakespeare	-11.8115
▁steadfast	-11.8115
▁steamboat	-11.8115
▁superficial	-11.8115
▁supernatural	-11.8115
▁tremulous	-11.8115
▁uncommon	-11.8115
▁vapour	-11.8115
▁zigzag	-11.8115
▁adroit	-11.8115
▁apologize	-11.8115
▁aramaean	-11.8115
▁audacity	-11.8115
▁barbaik	-11.8115
▁cambridge	-11.8115
▁captivity	-11.8115
▁carmody	-11.8115
▁cauldron	-11.8115
▁certificate	-11.8115
▁cheltenham	-11.8115
▁colchis	-11.8115
▁collision	-11.8115
▁communion	-11.8115
▁concentrated	-11.8115
▁consecrat	-11.8115
▁convoy	-11.8115
▁daddy	-11.8115
▁demolish	-11.8115
▁diameter	-11.8115
▁discrimination	-11.8115
▁disfigured	-11.8115
▁dishonor	-11.8115
▁distrust	-11.8115
▁efficac	-11.8115
▁encircl	-11.8115
▁evergreen	-11.8115
▁evoke	-11.8115
▁exposition	-11.8115
▁fireplace	-11.8115
▁frivol	-11.8115
▁grasshopper	-11.8115
▁grizzl	-11.8115
▁happiest	-11.8115
▁hereafter	-11.8115
▁hymn	-11.8115
▁immeasurabl	-11.8115
▁impostor	-11.8115
▁infancy	-11.8115
▁integrity	-11.8115
▁knives	-11.8115
▁mechanism	-11.8115
▁mediterranean	-11.8115
▁merriment	-11.8115
▁miniature	-11.8115
▁mutineers	-11.8115
▁muzzle	-11.8115
▁neutral	-11.8115
▁omitted	-11.8115
▁overthrow	-11.8115
▁pamphlet	-11.8115
▁precipice	-11.8115
▁raymond	-11.8115
▁reappear	-11.8115
▁rebuild	-11.8115
▁recreation	-11.8115
▁recruit	-11.8115
▁remorse	-11.8115
▁sanction	-11.8115
▁shrunk	-11.8115
▁stirrup	-11.8115
▁storeroom	-11.8115
▁strife	-11.8115
▁switzerland	-11.8115
▁sylvie	-11.8115
▁tablespoonful	-11.8115
▁theatrical	-11.8115
▁thyself	-11.8115
▁tilbury	-11.8115
▁vigour	-11.8115
▁westminster	-11.8115
▁yosemite	-11.8115
▁zeppelin	-11.8115
▁amendment	-11.8115
▁cheshire	-11.8115
▁distaste	-11.8115
▁eminence	-11.8115
▁explosi	-11.8115
▁forlorn	-11.8115
▁hilari	-11.8115
▁mortification	-11.8115
▁pestilen	-11.8115
▁phase	-11.8115
▁stateroom	-11.8115
▁stupor	-11.8115
▁transcend	-11.8115
▁trivial	-11.8115
▁orchestra	-11.8115
▁rebuke	-11.8115
▁shrub	-11.8115
▁thark	-11.8115
▁cramp	-11.8115
▁valiant	-11.8115
▁violin	-11.8115
▁burial	-11.8115
▁dissolv	-11.8115
▁stabb	-11.8115
▁cheque	-11.8115
▁jersey	-11.8115
▁overcoat	-11.8115
▁peyton	-11.8115
▁attila	-11.8115
▁conjur	-11.8115
▁flirt	-11.8115
▁reverend	-11.8115
▁sunrise	-11.8115
▁chorus	-11.8116
▁competiti	-11.8116
▁hingham	-11.8116
▁horde	-11.8116
▁draught	-11.8116
▁drill	-11.8116
▁goddess	-11.8116
▁querie	-11.8116
▁gallows	-11.8116
▁grievances	-11.8116
▁tadpole	-11.8116
▁loiter	-11.8116
▁parrot	-11.8116
▁urging	-11.8116
▁forfeit	-11.8116
▁latch	-11.8116
▁wistful	-11.8116
▁clark	-11.8116
▁digger	-11.8116
▁savor	-11.8116
▁hammer	-11.8116
▁chopp	-11.8116
▁caresses	-11.8116
▁isaac	-11.8116
▁hysterical	-11.8116
▁notorious	-11.8116
▁vista	-11.8116
▁northeast	-11.8116
▁dedicat	-11.8116
▁tolerate	-11.8116
onnois	-11.8116
▁effectual	-11.8116
▁emblem	-11.8116
▁gidd	-11.8116
▁install	-11.8116
▁whiskey	-11.8116
▁rites	-11.8116
tinue	-11.8117
▁brigand	-11.8117
▁governess	-11.8117
▁susan	-11.8117
▁smit	-11.8117
▁odin	-11.8117
▁ransom	-11.8117
▁rudd	-11.8117
▁aggr	-11.8117
▁birthday	-11.8117
▁farmhouse	-11.8117
▁intimation	-11.8118
▁fortified	-11.8118
▁hereditar	-11.8118
▁chieftain	-11.8118
▁shaving	-11.8118
▁ebon	-11.8118
▁ravine	-11.8118
▁alternative	-11.8118
bolt	-11.8118
▁hostess	-11.8118
▁ugli	-11.8118
▁brev	-11.8119
▁sown	-11.8119
▁chasm	-11.812
▁sagaci	-11.812
omatic	-11.812
▁dilat	-11.812
▁slab	-11.812
jou	-11.8121
▁seque	-11.8121
▁fortify	-11.8125
▁repute	-11.8125
▁argo	-11.8129
▁gamble	-11.8131
▁esp	-11.8141
oggle	-11.8143
bird	-11.8148
gnant	-11.8175
▁unsee	-11.8179
mbled	-11.8192
geese	-11.8229
▁subscribe	-11.823
▁dodg	-11.8248
estige	-11.8422
elli	-11.8474
▁victoria	-11.8503
nunciation	-11.8703
audible	-11.8723
precedent	-11.881
▁infirm	-11.8932
▁quarr	-11.9049
bourg	-11.9072
▁clamor	-11.9084
▁seduc	-11.9093
tention	-11.9096
▁recogniz	-11.9167
▁connect	-11.9226
▁rejoin	-11.9236
▁renew	-11.9236
▁bulg	-11.9298
held	-11.9307
servation	-11.9308
fusion	-11.9314
▁sensibl	-11.9333
▁choos	-11.9333
headed	-11.9333
tidy	-11.9343
▁sect	-11.9343
▁scamp	-11.9346
word	-11.9352
junct	-11.9354
▁provocati	-11.9354
▁inspect	-11.9356
disposed	-11.9357
proof	-11.9357
float	-11.9357
spread	-11.9357
ointed	-11.9364
issue	-11.9364
addin	-11.9365
surmount	-11.9365
▁complaisan	-11.9365
▁concierge	-11.9365
▁convincing	-11.9365
▁crosbie	-11.9365
▁diffiden	-11.9365
▁eject	-11.9365
▁fickle	-11.9365
▁fluctuati	-11.9365
▁inverashiel	-11.9365
▁lagree	-11.9365
▁tyrker	-11.9365
▁unaffected	-11.9365
▁unavailing	-11.9365
▁ungrateful	-11.9365
▁unselfish	-11.9365
arnault	-11.9365
comprehensible	-11.9365
▁accommodate	-11.9365
▁ambassador	-11.9365
▁arrogan	-11.9365
▁blount	-11.9365
▁carnival	-11.9365
▁cassandra	-11.9365
▁chivalry	-11.9365
▁collingwood	-11.9365
▁composure	-11.9365
▁condescend	-11.9365
▁confederate	-11.9365
▁conferred	-11.9365
▁consternation	-11.9365
▁controversy	-11.9365
▁crucifix	-11.9365
▁cudgel	-11.9365
▁depict	-11.9365
▁dialogue	-11.9365
▁dilemma	-11.9365
▁dimensions	-11.9365
▁dungeon	-11.9365
▁earthquake	-11.9365
▁edifice	-11.9365
▁eloquent	-11.9365
▁equilibrium	-11.9365
▁equivalen	-11.9365
▁exasperat	-11.9365
▁expanse	-11.9365
▁extenuat	-11.9365
▁feebly	-11.9365
▁foreboding	-11.9365
▁illegal	-11.9365
▁imperceptibl	-11.9365
▁imploring	-11.9365
▁imprudent	-11.9365
▁instantaneous	-11.9365
▁intelligibl	-11.9365
▁kettle	-11.9365
▁legislator	-11.9365
▁luscinda	-11.9365
▁metaphor	-11.9365
▁ministry	-11.9365
▁obstinacy	-11.9365
▁oklahoma	-11.9365
▁overshadow	-11.9365
▁pantaloon	-11.9365
▁photoplay	-11.9365
▁prescription	-11.9365
▁profile	-11.9365
▁provincial	-11.9365
▁prowess	-11.9365
▁repetition	-11.9365
▁savour	-11.9365
▁scheherazade	-11.9365
▁scrawl	-11.9365
▁scrutin	-11.9365
▁seyffert	-11.9365
▁shrivel	-11.9365
▁slacken	-11.9365
▁straggl	-11.9365
▁stupef	-11.9365
▁subscription	-11.9365
▁suspens	-11.9365
▁swagger	-11.9365
▁swirl	-11.9365
▁theologian	-11.9365
▁thieves	-11.9365
▁transfigur	-11.9365
▁transparent	-11.9365
▁tribunal	-11.9365
▁unavoidabl	-11.9365
▁uneasily	-11.9365
▁unmistakabl	-11.9365
▁unnoticed	-11.9365
▁wardrobe	-11.9365
▁yoritomo	-11.9365
▁bayonet	-11.9365
▁choir	-11.9365
▁component	-11.9365
▁deception	-11.9365
▁deluge	-11.9365
▁diminuti	-11.9365
▁drench	-11.9365
▁forecast	-11.9365
▁gospel	-11.9365
▁hoskins	-11.9365
▁mitigat	-11.9365
▁nimble	-11.9365
▁psalm	-11.9365
▁sanctu	-11.9365
▁shrine	-11.9365
▁sprung	-11.9365
▁tilda	-11.9365
▁waddl	-11.9365
▁balcony	-11.9365
▁daniel	-11.9365
▁deryck	-11.9365
▁furrow	-11.9365
▁moisten	-11.9365
▁scalp	-11.9365
▁thief	-11.9365
▁warehouse	-11.9365
▁cowboy	-11.9365
▁latitude	-11.9365
▁laurel	-11.9365
▁reuben	-11.9365
▁bewitch	-11.9365
▁depot	-11.9365
▁histories	-11.9365
▁maraud	-11.9366
▁breach	-11.9366
▁enmity	-11.9366
▁smack	-11.9366
▁distill	-11.9366
▁propell	-11.9366
▁fayle	-11.9366
▁suffus	-11.9366
aggard	-11.9366
cipal	-11.9366
▁capron	-11.9366
▁sheridan	-11.9366
▁yarn	-11.9366
▁fullerton	-11.9366
▁hahn	-11.9366
▁snare	-11.9366
▁surrey	-11.9366
▁tennis	-11.9366
▁oriole	-11.9366
▁salary	-11.9366
▁vinegar	-11.9366
daunted	-11.9366
pecuni	-11.9366
▁hearken	-11.9366
▁balmy	-11.9366
faltering	-11.9366
▁ordeal	-11.9366
▁terrifying	-11.9366
▁laud	-11.9366
▁whitlock	-11.9366
▁mosque	-11.9366
▁varnish	-11.9366
▁lyric	-11.9366
▁salon	-11.9366
▁mecca	-11.9366
▁meddle	-11.9366
▁goblet	-11.9366
▁emitt	-11.9366
▁midday	-11.9367
▁anomal	-11.9367
▁collie	-11.9367
▁heiress	-11.9367
▁emergenc	-11.9367
▁wisting	-11.9367
▁fisc	-11.9367
▁clash	-11.9368
▁horizontal	-11.9368
▁sash	-11.9368
▁orator	-11.9369
▁doleful	-11.937
▁penalt	-11.937
trepid	-11.9371
folk	-11.9372
▁moonli	-11.9372
kirk	-11.9372
▁flavo	-11.9373
▁fervo	-11.9374
▁supplicat	-11.9378
companies	-11.9378
proxim	-11.9379
mothered	-11.9379
▁benedict	-11.9384
versary	-11.9386
▁ethic	-11.9387
▁sigm	-11.9389
numbe	-11.9396
▁pictur	-11.9411
auntle	-11.9412
▁actress	-11.9416
▁differentiat	-11.942
arrow	-11.9426
▁flogg	-11.9427
▁strutt	-11.9443
▁plug	-11.945
▁glori	-11.9472
▁frett	-11.9517
▁brav	-11.9544
▁hostilit	-11.9584
▁pyr	-11.9592
▁victori	-11.9679
▁actua	-11.9714
▁mumm	-11.9721
▁infirmit	-11.9818
endous	-12.0077
▁cobb	-12.0106
▁dominat	-12.0184
▁vigilan	-12.0315
▁surround	-12.0573
▁deceiv	-12.0631
▁appoint	-12.0662
▁confirm	-12.0663
▁exclaim	-12.0666
▁northwest	-12.0684
pathy	-12.0714
▁composit	-12.078
▁potato	-12.0781
fair	-12.0786
broken	-12.0786
bridge	-12.0786
q	-13.5294
